unsigned char g_model[] = {
  0x1c, 0x00, 0x00, 0x00, 0x54, 0x46, 0x4c, 0x33, 0x14, 0x00, 0x20, 0x00,
  0x04, 0x00, 0x08, 0x00, 0x0c, 0x00, 0x10, 0x00, 0x14, 0x00, 0x00, 0x00,
  0x18, 0x00, 0x1c, 0x00, 0x14, 0x00, 0x00, 0x00, 0x03, 0x00, 0x00, 0x00,
  0x18, 0x00, 0x00, 0x00, 0x2c, 0x00, 0x00, 0x00, 0x70, 0x01, 0x00, 0x00,
  0x2c, 0x00, 0x00, 0x00, 0x18, 0x01, 0x00, 0x00, 0x98, 0x00, 0x00, 0x00,
  0x05, 0x00, 0x00, 0x00, 0x4c, 0x08, 0x00, 0x00, 0x94, 0x07, 0x00, 0x00,
  0x80, 0x06, 0x00, 0x00, 0xf8, 0x05, 0x00, 0x00, 0x7c, 0x02, 0x00, 0x00,
  0x01, 0x00, 0x00, 0x00, 0x68, 0x01, 0x00, 0x00, 0x1c, 0x00, 0x00, 0x00,
  0xbc, 0x13, 0x00, 0x00, 0xb8, 0x13, 0x00, 0x00, 0xf8, 0x12, 0x00, 0x00,
  0xa0, 0x12, 0x00, 0x00, 0x50, 0x12, 0x00, 0x00, 0x00, 0x12, 0x00, 0x00,
  0xc0, 0x11, 0x00, 0x00, 0xbc, 0x0c, 0x00, 0x00, 0x0c, 0x0c, 0x00, 0x00,
  0xc8, 0x09, 0x00, 0x00, 0x68, 0x09, 0x00, 0x00, 0x10, 0x09, 0x00, 0x00,
  0xac, 0x08, 0x00, 0x00, 0x50, 0x08, 0x00, 0x00, 0x84, 0x13, 0x00, 0x00,
  0x80, 0x13, 0x00, 0x00, 0x7c, 0x13, 0x00, 0x00, 0x78, 0x13, 0x00, 0x00,
  0x74, 0x13, 0x00, 0x00, 0x70, 0x13, 0x00, 0x00, 0x6c, 0x13, 0x00, 0x00,
  0x68, 0x13, 0x00, 0x00, 0x64, 0x13, 0x00, 0x00, 0x60, 0x13, 0x00, 0x00,
  0x5c, 0x13, 0x00, 0x00, 0x58, 0x13, 0x00, 0x00, 0x54, 0x13, 0x00, 0x00,
  0xb4, 0x00, 0x00, 0x00, 0x01, 0x00, 0x00, 0x00, 0x10, 0x00, 0x00, 0x00,
  0x00, 0x00, 0x0a, 0x00, 0x10, 0x00, 0x0c, 0x00, 0x08, 0x00, 0x04, 0x00,
  0x0a, 0x00, 0x00, 0x00, 0x0c, 0x00, 0x00, 0x00, 0x1c, 0x00, 0x00, 0x00,
  0x20, 0x00, 0x00, 0x00, 0x0f, 0x00, 0x00, 0x00, 0x73, 0x65, 0x72, 0x76,
  0x69, 0x6e, 0x67, 0x5f, 0x64, 0x65, 0x66, 0x61, 0x75, 0x6c, 0x74, 0x00,
  0x01, 0x00, 0x00, 0x00, 0x14, 0x00, 0x00, 0x00, 0x01, 0x00, 0x00, 0x00,
  0x24, 0x00, 0x00, 0x00, 0x08, 0x00, 0x0c, 0x00, 0x08, 0x00, 0x04, 0x00,
  0x08, 0x00, 0x00, 0x00, 0x19, 0x00, 0x00, 0x00, 0x04, 0x00, 0x00, 0x00,
  0x06, 0x00, 0x00, 0x00, 0x6f, 0x75, 0x74, 0x70, 0x75, 0x74, 0x00, 0x00,
  0xde, 0xed, 0xff, 0xff, 0x04, 0x00, 0x00, 0x00, 0x05, 0x00, 0x00, 0x00,
  0x69, 0x6e, 0x70, 0x75, 0x74, 0x00, 0x00, 0x00, 0x01, 0x00, 0x00, 0x00,
  0x0c, 0x00, 0x00, 0x00, 0x08, 0x00, 0x0c, 0x00, 0x04, 0x00, 0x08, 0x00,
  0x08, 0x00, 0x00, 0x00, 0x08, 0x00, 0x00, 0x00, 0x1b, 0x00, 0x00, 0x00,
  0x13, 0x00, 0x00, 0x00, 0x6d, 0x69, 0x6e, 0x5f, 0x72, 0x75, 0x6e, 0x74,
  0x69, 0x6d, 0x65, 0x5f, 0x76, 0x65, 0x72, 0x73, 0x69, 0x6f, 0x6e, 0x00,
  0x26, 0xee, 0xff, 0xff, 0x04, 0x00, 0x00, 0x00, 0x10, 0x00, 0x00, 0x00,
  0x31, 0x2e, 0x39, 0x2e, 0x30, 0x00, 0x00, 0x00, 0x00, 0x00, 0x00, 0x00,
  0x00, 0x00, 0x00, 0x00, 0x0f, 0x00, 0x00, 0x00, 0x4d, 0x4c, 0x49, 0x52,
  0x20, 0x43, 0x6f, 0x6e, 0x76, 0x65, 0x72, 0x74, 0x65, 0x64, 0x2e, 0x00,
  0x00, 0x00, 0x0e, 0x00, 0x18, 0x00, 0x04, 0x00, 0x08, 0x00, 0x0c, 0x00,
  0x10, 0x00, 0x14, 0x00, 0x0e, 0x00, 0x00, 0x00, 0x14, 0x00, 0x00, 0x00,
  0x7c, 0x00, 0x00, 0x00, 0x80, 0x00, 0x00, 0x00, 0x84, 0x00, 0x00, 0x00,
  0xb8, 0x00, 0x00, 0x00, 0x1a, 0x00, 0x00, 0x00, 0xfc, 0x11, 0x00, 0x00,
  0xa8, 0x11, 0x00, 0x00, 0x3c, 0x11, 0x00, 0x00, 0xf8, 0x10, 0x00, 0x00,
  0xa8, 0x10, 0x00, 0x00, 0x58, 0x10, 0x00, 0x00, 0x14, 0x10, 0x00, 0x00,
  0x04, 0x0b, 0x00, 0x00, 0x50, 0x0a, 0x00, 0x00, 0x0c, 0x08, 0x00, 0x00,
  0xb0, 0x07, 0x00, 0x00, 0x50, 0x07, 0x00, 0x00, 0xf0, 0x06, 0x00, 0x00,
  0x8c, 0x06, 0x00, 0x00, 0xd4, 0x05, 0x00, 0x00, 0x18, 0x05, 0x00, 0x00,
  0xbc, 0x04, 0x00, 0x00, 0x34, 0x04, 0x00, 0x00, 0xc8, 0x03, 0x00, 0x00,
  0x54, 0x03, 0x00, 0x00, 0xcc, 0x02, 0x00, 0x00, 0x28, 0x02, 0x00, 0x00,
  0xcc, 0x01, 0x00, 0x00, 0x60, 0x01, 0x00, 0x00, 0xfc, 0x00, 0x00, 0x00,
  0x9c, 0x00, 0x00, 0x00, 0x01, 0x00, 0x00, 0x00, 0x00, 0x00, 0x00, 0x00,
  0x01, 0x00, 0x00, 0x00, 0x19, 0x00, 0x00, 0x00, 0x0d, 0x00, 0x00, 0x00,
  0x08, 0x06, 0x00, 0x00, 0x30, 0x05, 0x00, 0x00, 0xb0, 0x04, 0x00, 0x00,
  0x40, 0x04, 0x00, 0x00, 0xbc, 0x03, 0x00, 0x00, 0x5c, 0x03, 0x00, 0x00,
  0xec, 0x02, 0x00, 0x00, 0x44, 0x02, 0x00, 0x00, 0xc0, 0x01, 0x00, 0x00,
  0x60, 0x01, 0x00, 0x00, 0xf8, 0x00, 0x00, 0x00, 0x94, 0x00, 0x00, 0x00,
  0x10, 0x00, 0x00, 0x00, 0x04, 0x00, 0x00, 0x00, 0x6d, 0x61, 0x69, 0x6e,
  0x00, 0x00, 0x00, 0x00, 0xee, 0xfd, 0xff, 0xff, 0x00, 0x00, 0x00, 0x08,
  0x04, 0x00, 0x00, 0x00, 0x18, 0x00, 0x00, 0x00, 0x0c, 0x00, 0x00, 0x00,
  0x04, 0x00, 0x00, 0x00, 0x98, 0xee, 0xff, 0xff, 0x01, 0x00, 0x00, 0x00,
  0x19, 0x00, 0x00, 0x00, 0x03, 0x00, 0x00, 0x00, 0x18, 0x00, 0x00, 0x00,
  0x06, 0x00, 0x00, 0x00, 0x05, 0x00, 0x00, 0x00, 0x4c, 0xfa, 0xff, 0xff,
  0x09, 0x00, 0x00, 0x00, 0x00, 0x00, 0x00, 0x09, 0x01, 0x00, 0x00, 0x00,
  0x12, 0xef, 0xff, 0xff, 0x10, 0x00, 0x00, 0x00, 0x1a, 0x00, 0x00, 0x00,
  0x14, 0x00, 0x00, 0x00, 0x28, 0x00, 0x00, 0x00, 0x02, 0x00, 0x00, 0x00,
  0x01, 0x00, 0x00, 0x00, 0x01, 0x00, 0x00, 0x00, 0x11, 0x00, 0x00, 0x00,
  0x50, 0x61, 0x72, 0x74, 0x69, 0x74, 0x69, 0x6f, 0x6e, 0x65, 0x64, 0x43,
  0x61, 0x6c, 0x6c, 0x3a, 0x30, 0x00, 0x00, 0x00, 0xfc, 0xee, 0xff, 0xff,
  0xc2, 0xfa, 0xff, 0xff, 0x10, 0x00, 0x00, 0x00, 0x04, 0x00, 0x00, 0x00,
  0x01, 0x00, 0x00, 0x00, 0x18, 0x00, 0x00, 0x00, 0x02, 0x00, 0x00, 0x00,
  0x17, 0x00, 0x00, 0x00, 0x02, 0x00, 0x00, 0x00, 0x6e, 0xef, 0xff, 0xff,
  0x10, 0x00, 0x00, 0x00, 0x19, 0x00, 0x00, 0x00, 0x14, 0x00, 0x00, 0x00,
  0x2c, 0x00, 0x00, 0x00, 0x02, 0x00, 0x00, 0x00, 0x01, 0x00, 0x00, 0x00,
  0x31, 0x01, 0x00, 0x00, 0x17, 0x00, 0x00, 0x00, 0x66, 0x6c, 0x61, 0x74,
  0x74, 0x65, 0x6e, 0x2f, 0x52, 0x65, 0x73, 0x68, 0x61, 0x70, 0x65, 0x3b,
  0x52, 0x65, 0x73, 0x68, 0x61, 0x70, 0x65, 0x00, 0x5c, 0xef, 0xff, 0xff,
  0xde, 0xfc, 0xff, 0xff, 0x03, 0x00, 0x00, 0x00, 0x10, 0x00, 0x00, 0x00,
  0x04, 0x00, 0x00, 0x00, 0x01, 0x00, 0x00, 0x00, 0x17, 0x00, 0x00, 0x00,
  0x01, 0x00, 0x00, 0x00, 0x16, 0x00, 0x00, 0x00, 0xce, 0xef, 0xff, 0xff,
  0x10, 0x00, 0x00, 0x00, 0x18, 0x00, 0x00, 0x00, 0x18, 0x00, 0x00, 0x00,
  0x30, 0x00, 0x00, 0x00, 0x03, 0x00, 0x00, 0x00, 0x01, 0x00, 0x00, 0x00,
  0x05, 0x00, 0x00, 0x00, 0x3d, 0x00, 0x00, 0x00, 0x14, 0x00, 0x00, 0x00,
  0x6f, 0x6e, 0x6e, 0x78, 0x5f, 0x74, 0x66, 0x5f, 0x70, 0x72, 0x65, 0x66,
  0x69, 0x78, 0x5f, 0x53, 0x69, 0x6e, 0x5f, 0x34, 0x00, 0x00, 0x00, 0x00,
  0xc0, 0xef, 0xff, 0xff, 0x42, 0xfd, 0xff, 0xff, 0x02, 0x00, 0x00, 0x00,
  0x10, 0x00, 0x00, 0x00, 0x04, 0x00, 0x00, 0x00, 0x01, 0x00, 0x00, 0x00,
  0x16, 0x00, 0x00, 0x00, 0x02, 0x00, 0x00, 0x00, 0x15, 0x00, 0x00, 0x00,
  0x01, 0x00, 0x00, 0x00, 0x36, 0xf0, 0xff, 0xff, 0x10, 0x00, 0x00, 0x00,
  0x17, 0x00, 0x00, 0x00, 0x18, 0x00, 0x00, 0x00, 0x24, 0x00, 0x00, 0x00,
  0x03, 0x00, 0x00, 0x00, 0x01, 0x00, 0x00, 0x00, 0x05, 0x00, 0x00, 0x00,
  0x3d, 0x00, 0x00, 0x00, 0x0b, 0x00, 0x00, 0x00, 0x74, 0x72, 0x61, 0x6e,
  0x73, 0x70, 0x6f, 0x73, 0x65, 0x5f, 0x35, 0x00, 0x1c, 0xf0, 0xff, 0xff,
  0xe2, 0xfb, 0xff, 0xff, 0x10, 0x00, 0x00, 0x00, 0x04, 0x00, 0x00, 0x00,
  0x01, 0x00, 0x00, 0x00, 0x15, 0x00, 0x00, 0x00, 0x02, 0x00, 0x00, 0x00,
  0x14, 0x00, 0x00, 0x00, 0x0c, 0x00, 0x00, 0x00, 0x8e, 0xf0, 0xff, 0xff,
  0x10, 0x00, 0x00, 0x00, 0x16, 0x00, 0x00, 0x00, 0x18, 0x00, 0x00, 0x00,
  0x3c, 0x00, 0x00, 0x00, 0x03, 0x00, 0x00, 0x00, 0x01, 0x00, 0x00, 0x00,
  0x3d, 0x00, 0x00, 0x00, 0x05, 0x00, 0x00, 0x00, 0x23, 0x00, 0x00, 0x00,
  0x41, 0x64, 0x64, 0x5f, 0x31, 0x3b, 0x63, 0x6f, 0x6e, 0x76, 0x6f, 0x6c,
  0x75, 0x74, 0x69, 0x6f, 0x6e, 0x5f, 0x31, 0x2f, 0x53, 0x71, 0x75, 0x65,
  0x65, 0x7a, 0x65, 0x3b, 0x43, 0x6f, 0x6e, 0x73, 0x74, 0x5f, 0x33, 0x00,
  0xe4, 0xf0, 0xff, 0xff, 0x00, 0x00, 0x0e, 0x00, 0x18, 0x00, 0x08, 0x00,
  0x0c, 0x00, 0x10, 0x00, 0x07, 0x00, 0x14, 0x00, 0x0e, 0x00, 0x00, 0x00,
  0x00, 0x00, 0x00, 0x01, 0x01, 0x00, 0x00, 0x00, 0x24, 0x00, 0x00, 0x00,
  0x18, 0x00, 0x00, 0x00, 0x04, 0x00, 0x00, 0x00, 0x2a, 0xfd, 0xff, 0xff,
  0x01, 0x00, 0x00, 0x00, 0x01, 0x00, 0x00, 0x00, 0x00, 0x00, 0x00, 0x01,
  0x01, 0x00, 0x00, 0x00, 0x14, 0x00, 0x00, 0x00, 0x03, 0x00, 0x00, 0x00,
  0x13, 0x00, 0x00, 0x00, 0x08, 0x00, 0x00, 0x00, 0x04, 0x00, 0x00, 0x00,
  0x2e, 0xf1, 0xff, 0xff, 0x10, 0x00, 0x00, 0x00, 0x15, 0x00, 0x00, 0x00,
  0x1c, 0x00, 0x00, 0x00, 0x50, 0x00, 0x00, 0x00, 0x04, 0x00, 0x00, 0x00,
  0x01, 0x00, 0x00, 0x00, 0x01, 0x00, 0x00, 0x00, 0x3d, 0x00, 0x00, 0x00,
  0x05, 0x00, 0x00, 0x00, 0x31, 0x00, 0x00, 0x00, 0x41, 0x64, 0x64, 0x5f,
  0x31, 0x3b, 0x63, 0x6f, 0x6e, 0x76, 0x6f, 0x6c, 0x75, 0x74, 0x69, 0x6f,
  0x6e, 0x5f, 0x31, 0x2f, 0x53, 0x71, 0x75, 0x65, 0x65, 0x7a, 0x65, 0x3b,
  0x43, 0x6f, 0x6e, 0x73, 0x74, 0x5f, 0x33, 0x3b, 0x63, 0x6f, 0x6e, 0x76,
  0x6f, 0x6c, 0x75, 0x74, 0x69, 0x6f, 0x6e, 0x5f, 0x31, 0x00, 0x00, 0x00,
  0x40, 0xf1, 0xff, 0xff, 0x06, 0xfd, 0xff, 0xff, 0x10, 0x00, 0x00, 0x00,
  0x04, 0x00, 0x00, 0x00, 0x01, 0x00, 0x00, 0x00, 0x13, 0x00, 0x00, 0x00,
  0x02, 0x00, 0x00, 0x00, 0x12, 0x00, 0x00, 0x00, 0x0b, 0x00, 0x00, 0x00,
  0xb2, 0xf1, 0xff, 0xff, 0x10, 0x00, 0x00, 0x00, 0x14, 0x00, 0x00, 0x00,
  0x1c, 0x00, 0x00, 0x00, 0x38, 0x00, 0x00, 0x00, 0x04, 0x00, 0x00, 0x00,
  0x01, 0x00, 0x00, 0x00, 0x01, 0x00, 0x00, 0x00, 0x41, 0x00, 0x00, 0x00,
  0x05, 0x00, 0x00, 0x00, 0x19, 0x00, 0x00, 0x00, 0x63, 0x6f, 0x6e, 0x76,
  0x6f, 0x6c, 0x75, 0x74, 0x69, 0x6f, 0x6e, 0x5f, 0x31, 0x2f, 0x45, 0x78,
  0x70, 0x61, 0x6e, 0x64, 0x44, 0x69, 0x6d, 0x73, 0x31, 0x00, 0x00, 0x00,
  0xac, 0xf1, 0xff, 0xff, 0x2e, 0xff, 0xff, 0xff, 0x02, 0x00, 0x00, 0x00,
  0x10, 0x00, 0x00, 0x00, 0x04, 0x00, 0x00, 0x00, 0x01, 0x00, 0x00, 0x00,
  0x12, 0x00, 0x00, 0x00, 0x02, 0x00, 0x00, 0x00, 0x11, 0x00, 0x00, 0x00,
  0x01, 0x00, 0x00, 0x00, 0x22, 0xf2, 0xff, 0xff, 0x10, 0x00, 0x00, 0x00,
  0x13, 0x00, 0x00, 0x00, 0x18, 0x00, 0x00, 0x00, 0x24, 0x00, 0x00, 0x00,
  0x03, 0x00, 0x00, 0x00, 0x01, 0x00, 0x00, 0x00, 0x41, 0x00, 0x00, 0x00,
  0x05, 0x00, 0x00, 0x00, 0x0b, 0x00, 0x00, 0x00, 0x74, 0x72, 0x61, 0x6e,
  0x73, 0x70, 0x6f, 0x73, 0x65, 0x5f, 0x34, 0x00, 0x08, 0xf2, 0xff, 0xff,
  0x8a, 0xff, 0xff, 0xff, 0x03, 0x00, 0x00, 0x00, 0x10, 0x00, 0x00, 0x00,
  0x04, 0x00, 0x00, 0x00, 0x01, 0x00, 0x00, 0x00, 0x11, 0x00, 0x00, 0x00,
  0x01, 0x00, 0x00, 0x00, 0x10, 0x00, 0x00, 0x00, 0xc4, 0xfd, 0xff, 0xff,
  0x42, 0x00, 0x00, 0x00, 0x00, 0x00, 0x00, 0x42, 0x01, 0x00, 0x00, 0x00,
  0x8a, 0xf2, 0xff, 0xff, 0x10, 0x00, 0x00, 0x00, 0x12, 0x00, 0x00, 0x00,
  0x18, 0x00, 0x00, 0x00, 0x30, 0x00, 0x00, 0x00, 0x03, 0x00, 0x00, 0x00,
  0x01, 0x00, 0x00, 0x00, 0x05, 0x00, 0x00, 0x00, 0x41, 0x00, 0x00, 0x00,
  0x14, 0x00, 0x00, 0x00, 0x6f, 0x6e, 0x6e, 0x78, 0x5f, 0x74, 0x66, 0x5f,
  0x70, 0x72, 0x65, 0x66, 0x69, 0x78, 0x5f, 0x53, 0x69, 0x6e, 0x5f, 0x32,
  0x00, 0x00, 0x00, 0x00, 0xd4, 0xf2, 0xff, 0xff, 0x00, 0x00, 0x0a, 0x00,
  0x10, 0x00, 0x04, 0x00, 0x08, 0x00, 0x0c, 0x00, 0x0a, 0x00, 0x00, 0x00,
  0x02, 0x00, 0x00, 0x00, 0x10, 0x00, 0x00, 0x00, 0x04, 0x00, 0x00, 0x00,
  0x01, 0x00, 0x00, 0x00, 0x10, 0x00, 0x00, 0x00, 0x02, 0x00, 0x00, 0x00,
  0x0f, 0x00, 0x00, 0x00, 0x01, 0x00, 0x00, 0x00, 0x48, 0xfe, 0xff, 0xff,
  0x27, 0x00, 0x00, 0x00, 0x00, 0x00, 0x00, 0x27, 0x01, 0x00, 0x00, 0x00,
  0x0e, 0xf3, 0xff, 0xff, 0x10, 0x00, 0x00, 0x00, 0x11, 0x00, 0x00, 0x00,
  0x18, 0x00, 0x00, 0x00, 0x24, 0x00, 0x00, 0x00, 0x03, 0x00, 0x00, 0x00,
  0x01, 0x00, 0x00, 0x00, 0x05, 0x00, 0x00, 0x00, 0x41, 0x00, 0x00, 0x00,
  0x0b, 0x00, 0x00, 0x00, 0x74, 0x72, 0x61, 0x6e, 0x73, 0x70, 0x6f, 0x73,
  0x65, 0x5f, 0x32, 0x00, 0xf4, 0xf2, 0xff, 0xff, 0xba, 0xfe, 0xff, 0xff,
  0x10, 0x00, 0x00, 0x00, 0x04, 0x00, 0x00, 0x00, 0x01, 0x00, 0x00, 0x00,
  0x0f, 0x00, 0x00, 0x00, 0x02, 0x00, 0x00, 0x00, 0x0e, 0x00, 0x00, 0x00,
  0x0a, 0x00, 0x00, 0x00, 0x66, 0xf3, 0xff, 0xff, 0x10, 0x00, 0x00, 0x00,
  0x10, 0x00, 0x00, 0x00, 0x18, 0x00, 0x00, 0x00, 0x38, 0x00, 0x00, 0x00,
  0x03, 0x00, 0x00, 0x00, 0x01, 0x00, 0x00, 0x00, 0x41, 0x00, 0x00, 0x00,
  0x05, 0x00, 0x00, 0x00, 0x1f, 0x00, 0x00, 0x00, 0x41, 0x64, 0x64, 0x3b,
  0x63, 0x6f, 0x6e, 0x76, 0x6f, 0x6c, 0x75, 0x74, 0x69, 0x6f, 0x6e, 0x2f,
  0x53, 0x71, 0x75, 0x65, 0x65, 0x7a, 0x65, 0x3b, 0x43, 0x6f, 0x6e, 0x73,
  0x74, 0x5f, 0x31, 0x00, 0xb8, 0xf3, 0xff, 0xff, 0x00, 0x00, 0x0e, 0x00,
  0x1a, 0x00, 0x08, 0x00, 0x0c, 0x00, 0x10, 0x00, 0x07, 0x00, 0x14, 0x00,
  0x0e, 0x00, 0x00, 0x00, 0x00, 0x00, 0x00, 0x01, 0x01, 0x00, 0x00, 0x00,
  0x30, 0x00, 0x00, 0x00, 0x24, 0x00, 0x00, 0x00, 0x10, 0x00, 0x00, 0x00,
  0x00, 0x00, 0x0a, 0x00, 0x10, 0x00, 0x0f, 0x00, 0x04, 0x00, 0x08, 0x00,
  0x0a, 0x00, 0x00, 0x00, 0x01, 0x00, 0x00, 0x00, 0x01, 0x00, 0x00, 0x00,
  0x00, 0x00, 0x00, 0x01, 0x01, 0x00, 0x00, 0x00, 0x0e, 0x00, 0x00, 0x00,
  0x03, 0x00, 0x00, 0x00, 0x0d, 0x00, 0x00, 0x00, 0x07, 0x00, 0x00, 0x00,
  0x03, 0x00, 0x00, 0x00, 0x58, 0xff, 0xff, 0xff, 0x03, 0x00, 0x00, 0x00,
  0x00, 0x00, 0x00, 0x03, 0x01, 0x00, 0x00, 0x00, 0x1e, 0xf4, 0xff, 0xff,
  0x10, 0x00, 0x00, 0x00, 0x0f, 0x00, 0x00, 0x00, 0x1c, 0x00, 0x00, 0x00,
  0x58, 0x00, 0x00, 0x00, 0x04, 0x00, 0x00, 0x00, 0x01, 0x00, 0x00, 0x00,
  0x01, 0x00, 0x00, 0x00, 0x41, 0x00, 0x00, 0x00, 0x05, 0x00, 0x00, 0x00,
  0x39, 0x00, 0x00, 0x00, 0x41, 0x64, 0x64, 0x3b, 0x63, 0x6f, 0x6e, 0x76,
  0x6f, 0x6c, 0x75, 0x74, 0x69, 0x6f, 0x6e, 0x2f, 0x53, 0x71, 0x75, 0x65,
  0x65, 0x7a, 0x65, 0x3b, 0x43, 0x6f, 0x6e, 0x73, 0x74, 0x5f, 0x31, 0x3b,
  0x63, 0x6f, 0x6e, 0x76, 0x6f, 0x6c, 0x75, 0x74, 0x69, 0x6f, 0x6e, 0x5f,
  0x31, 0x3b, 0x63, 0x6f, 0x6e, 0x76, 0x6f, 0x6c, 0x75, 0x74, 0x69, 0x6f,
  0x6e, 0x00, 0x00, 0x00, 0x90, 0xf4, 0xff, 0xff, 0x00, 0x00, 0x0a, 0x00,
  0x0c, 0x00, 0x00, 0x00, 0x04, 0x00, 0x08, 0x00, 0x0a, 0x00, 0x00, 0x00,
  0x10, 0x00, 0x00, 0x00, 0x04, 0x00, 0x00, 0x00, 0x01, 0x00, 0x00, 0x00,
  0x0d, 0x00, 0x00, 0x00, 0x02, 0x00, 0x00, 0x00, 0x00, 0x00, 0x00, 0x00,
  0x09, 0x00, 0x00, 0x00, 0x0c, 0x00, 0x10, 0x00, 0x0b, 0x00, 0x00, 0x00,
  0x0c, 0x00, 0x04, 0x00, 0x0c, 0x00, 0x00, 0x00, 0x16, 0x00, 0x00, 0x00,
  0x00, 0x00, 0x00, 0x16, 0x01, 0x00, 0x00, 0x00, 0xd2, 0xf4, 0xff, 0xff,
  0x10, 0x00, 0x00, 0x00, 0x0e, 0x00, 0x00, 0x00, 0x1c, 0x00, 0x00, 0x00,
  0x34, 0x00, 0x00, 0x00, 0x04, 0x00, 0x00, 0x00, 0x01, 0x00, 0x00, 0x00,
  0x01, 0x00, 0x00, 0x00, 0x45, 0x00, 0x00, 0x00, 0x01, 0x00, 0x00, 0x00,
  0x17, 0x00, 0x00, 0x00, 0x63, 0x6f, 0x6e, 0x76, 0x6f, 0x6c, 0x75, 0x74,
  0x69, 0x6f, 0x6e, 0x2f, 0x45, 0x78, 0x70, 0x61, 0x6e, 0x64, 0x44, 0x69,
  0x6d, 0x73, 0x31, 0x00, 0xc8, 0xf4, 0xff, 0xff, 0x8a, 0xf5, 0xff, 0xff,
  0x04, 0x00, 0x00, 0x00, 0x0c, 0x00, 0x00, 0x00, 0x01, 0x00, 0x00, 0x00,
  0x3d, 0x00, 0x00, 0x00, 0x05, 0x00, 0x00, 0x00, 0x82, 0xf5, 0xff, 0xff,
  0x00, 0x00, 0x00, 0x02, 0x10, 0x00, 0x00, 0x00, 0x0d, 0x00, 0x00, 0x00,
  0x10, 0x00, 0x00, 0x00, 0x28, 0x00, 0x00, 0x00, 0x01, 0x00, 0x00, 0x00,
  0x03, 0x00, 0x00, 0x00, 0x15, 0x00, 0x00, 0x00, 0x63, 0x6f, 0x6e, 0x76,
  0x6f, 0x6c, 0x75, 0x74, 0x69, 0x6f, 0x6e, 0x5f, 0x31, 0x2f, 0x53, 0x71,
  0x75, 0x65, 0x65, 0x7a, 0x65, 0x00, 0x00, 0x00, 0x20, 0xf5, 0xff, 0xff,
  0xe2, 0xf5, 0xff, 0xff, 0x04, 0x00, 0x00, 0x00, 0x10, 0x00, 0x00, 0x00,
  0x01, 0x00, 0x00, 0x00, 0x01, 0x00, 0x00, 0x00, 0x41, 0x00, 0x00, 0x00,
  0x05, 0x00, 0x00, 0x00, 0xde, 0xf5, 0xff, 0xff, 0x00, 0x00, 0x00, 0x02,
  0x10, 0x00, 0x00, 0x00, 0x0c, 0x00, 0x00, 0x00, 0x10, 0x00, 0x00, 0x00,
  0x2c, 0x00, 0x00, 0x00, 0x01, 0x00, 0x00, 0x00, 0x04, 0x00, 0x00, 0x00,
  0x18, 0x00, 0x00, 0x00, 0x63, 0x6f, 0x6e, 0x76, 0x6f, 0x6c, 0x75, 0x74,
  0x69, 0x6f, 0x6e, 0x5f, 0x31, 0x2f, 0x45, 0x78, 0x70, 0x61, 0x6e, 0x64,
  0x44, 0x69, 0x6d, 0x73, 0x00, 0x00, 0x00, 0x00, 0x80, 0xf5, 0xff, 0xff,
  0x42, 0xf6, 0xff, 0xff, 0x04, 0x00, 0x00, 0x00, 0x0c, 0x00, 0x00, 0x00,
  0x01, 0x00, 0x00, 0x00, 0x41, 0x00, 0x00, 0x00, 0x05, 0x00, 0x00, 0x00,
  0x3a, 0xf6, 0xff, 0xff, 0x00, 0x00, 0x00, 0x02, 0x10, 0x00, 0x00, 0x00,
  0x0b, 0x00, 0x00, 0x00, 0x10, 0x00, 0x00, 0x00, 0x24, 0x00, 0x00, 0x00,
  0x01, 0x00, 0x00, 0x00, 0x03, 0x00, 0x00, 0x00, 0x13, 0x00, 0x00, 0x00,
  0x63, 0x6f, 0x6e, 0x76, 0x6f, 0x6c, 0x75, 0x74, 0x69, 0x6f, 0x6e, 0x2f,
  0x53, 0x71, 0x75, 0x65, 0x65, 0x7a, 0x65, 0x00, 0xd4, 0xf5, 0xff, 0xff,
  0x96, 0xf6, 0xff, 0xff, 0x04, 0x00, 0x00, 0x00, 0x10, 0x00, 0x00, 0x00,
  0x01, 0x00, 0x00, 0x00, 0x01, 0x00, 0x00, 0x00, 0x45, 0x00, 0x00, 0x00,
  0x01, 0x00, 0x00, 0x00, 0x92, 0xf6, 0xff, 0xff, 0x00, 0x00, 0x00, 0x02,
  0x10, 0x00, 0x00, 0x00, 0x0a, 0x00, 0x00, 0x00, 0x10, 0x00, 0x00, 0x00,
  0x28, 0x00, 0x00, 0x00, 0x01, 0x00, 0x00, 0x00, 0x04, 0x00, 0x00, 0x00,
  0x16, 0x00, 0x00, 0x00, 0x63, 0x6f, 0x6e, 0x76, 0x6f, 0x6c, 0x75, 0x74,
  0x69, 0x6f, 0x6e, 0x2f, 0x45, 0x78, 0x70, 0x61, 0x6e, 0x64, 0x44, 0x69,
  0x6d, 0x73, 0x00, 0x00, 0x30, 0xf6, 0xff, 0xff, 0xf2, 0xf6, 0xff, 0xff,
  0x04, 0x00, 0x00, 0x00, 0xf4, 0x01, 0x00, 0x00, 0xde, 0xe7, 0x64, 0xbe,
  0x53, 0xac, 0xdf, 0xbe, 0xb3, 0x6f, 0xe7, 0xbe, 0x5a, 0xbb, 0x90, 0x3c,
  0x15, 0xab, 0x84, 0xbf, 0x08, 0x25, 0x1e, 0xbf, 0x62, 0x7d, 0xf4, 0x3e,
  0xa0, 0x13, 0xe5, 0xbe, 0xe0, 0xec, 0xdf, 0xbd, 0x8c, 0x41, 0x57, 0x3f,
  0xce, 0xa5, 0x5e, 0xbf, 0x68, 0x21, 0x88, 0xbf, 0xf0, 0xa0, 0x1f, 0xbf,
  0x83, 0x6a, 0xbb, 0xbe, 0x43, 0x5c, 0xd6, 0x3e, 0x35, 0x9e, 0xd5, 0x3e,
  0x18, 0xfc, 0x06, 0xbd, 0xe5, 0xee, 0x9f, 0x3f, 0x93, 0x0f, 0x30, 0xbd,
  0x2c, 0x74, 0x37, 0xbe, 0x36, 0xc4, 0xa5, 0x3e, 0x7f, 0xeb, 0x9a, 0x3f,
  0x60, 0xc6, 0xa9, 0x3c, 0xdc, 0x6f, 0xd8, 0x3e, 0x5d, 0x1c, 0x89, 0x3f,
  0x3f, 0x3d, 0x6b, 0xbe, 0x13, 0xa4, 0x6e, 0x3f, 0xc2, 0xbd, 0xba, 0x3f,
  0x2c, 0x5a, 0x89, 0x3c, 0xb8, 0x7e, 0x86, 0x3e, 0xcc, 0x4b, 0x1d, 0xbd,
  0x11, 0x09, 0xa5, 0x3e, 0x47, 0xf0, 0xa3, 0x3c, 0xb7, 0x98, 0x3c, 0x3f,
  0xcb, 0x6d, 0xd3, 0xbe, 0xdc, 0x94, 0x56, 0xbe, 0xed, 0xff, 0x9a, 0x3e,
  0x90, 0x59, 0x9d, 0xbe, 0x50, 0xc6, 0x4e, 0x3e, 0x0d, 0xf0, 0x1d, 0xbf,
  0xd5, 0x5a, 0xb0, 0xbe, 0xb1, 0x8c, 0xd9, 0xbe, 0x95, 0xc2, 0xda, 0xbd,
  0xb9, 0x9c, 0x65, 0xbf, 0x9f, 0x86, 0x50, 0xbe, 0xb6, 0x7b, 0x30, 0xbf,
  0x95, 0x4c, 0x9c, 0xbf, 0x8b, 0xb7, 0x1e, 0xbf, 0xde, 0xe0, 0x75, 0xbf,
  0x1d, 0xd8, 0xb1, 0xbf, 0xe7, 0xae, 0x13, 0xbe, 0x30, 0xf9, 0xe5, 0x3d,
  0x28, 0x0d, 0xb7, 0x3e, 0xdc, 0xa2, 0xee, 0x3e, 0x2f, 0x9d, 0x2c, 0xbf,
  0x82, 0xd2, 0x9a, 0x3e, 0x53, 0x0e, 0x31, 0x3f, 0xa9, 0xee, 0x73, 0x3f,
  0xa1, 0x0d, 0x4c, 0x3f, 0x17, 0xc2, 0xaf, 0x3f, 0xf7, 0xf3, 0x57, 0x3f,
  0x4b, 0x23, 0xff, 0xbe, 0xe9, 0x4c, 0x59, 0x3e, 0x1a, 0x6a, 0x38, 0xbf,
  0xd4, 0x75, 0x54, 0xbe, 0x4d, 0x5e, 0x58, 0xbe, 0x96, 0x2e, 0xaf, 0x3f,
  0xf5, 0xae, 0x0b, 0xbf, 0xbe, 0xfb, 0x4a, 0xbe, 0x5f, 0x9d, 0x7e, 0x3e,
  0x62, 0x22, 0xb6, 0xbe, 0x9c, 0x69, 0x2a, 0x3d, 0x67, 0xda, 0xa5, 0xbf,
  0x6b, 0x9c, 0x9f, 0x3e, 0x5e, 0x91, 0x0b, 0xbf, 0xf8, 0x60, 0xd1, 0xbd,
  0x1c, 0xd4, 0x9f, 0x3d, 0xb8, 0x90, 0x1b, 0xbf, 0xd3, 0x53, 0x66, 0xbf,
  0xaa, 0x31, 0xef, 0xbf, 0xd0, 0x6b, 0x90, 0x3e, 0xe4, 0x30, 0x81, 0xbe,
  0x5f, 0x4a, 0x12, 0x3f, 0x2e, 0x15, 0x3d, 0x3e, 0x43, 0xf1, 0x3d, 0xbf,
  0x5f, 0xd9, 0xbd, 0xbe, 0x24, 0xb7, 0x17, 0xbf, 0xc0, 0x17, 0x54, 0x3f,
  0x37, 0x3b, 0x41, 0x3e, 0xeb, 0xf2, 0x08, 0x3f, 0xb0, 0x10, 0x17, 0x3f,
  0xda, 0x53, 0x82, 0xbd, 0x14, 0xf8, 0xf1, 0x3e, 0x7c, 0x46, 0x00, 0xbf,
  0xbf, 0xf7, 0x29, 0x3f, 0x69, 0xf1, 0x62, 0x3f, 0x5a, 0x33, 0xe2, 0x3d,
  0x85, 0xee, 0x1c, 0x3f, 0x90, 0x93, 0x61, 0xbf, 0x6d, 0xeb, 0x92, 0x3f,
  0x84, 0xbc, 0xb6, 0xbf, 0x84, 0x1b, 0x87, 0xbf, 0xc6, 0x84, 0x7c, 0x3e,
  0x74, 0xf7, 0x34, 0xbc, 0x85, 0xc5, 0x3b, 0xbf, 0xab, 0x65, 0xb0, 0xbe,
  0xd9, 0x5c, 0x10, 0x3f, 0x50, 0x12, 0xa3, 0x3e, 0x5c, 0x1f, 0x99, 0xbe,
  0x39, 0xa1, 0x12, 0x3e, 0x19, 0x93, 0x3b, 0x3f, 0x65, 0x65, 0x78, 0xbe,
  0x83, 0x04, 0x4b, 0xbe, 0x76, 0x8b, 0xbb, 0x3e, 0xb2, 0xc2, 0x40, 0x3d,
  0x1a, 0x0f, 0xce, 0x3d, 0x35, 0xa0, 0xc1, 0x3f, 0x3e, 0x04, 0xe8, 0xbe,
  0x95, 0x8d, 0xd5, 0xbd, 0x00, 0x74, 0x3f, 0xbf, 0x99, 0xc6, 0x1f, 0x3d,
  0x49, 0x7b, 0xdd, 0xbf, 0xaf, 0x05, 0xdc, 0x3e, 0x13, 0xf7, 0x7a, 0x3e,
  0xec, 0x2b, 0x7c, 0xbe, 0x82, 0xf8, 0xff, 0xff, 0x10, 0x00, 0x00, 0x00,
  0x09, 0x00, 0x00, 0x00, 0x1c, 0x00, 0x00, 0x00, 0x2c, 0x00, 0x00, 0x00,
  0x04, 0x00, 0x00, 0x00, 0x05, 0x00, 0x00, 0x00, 0x01, 0x00, 0x00, 0x00,
  0x05, 0x00, 0x00, 0x00, 0x05, 0x00, 0x00, 0x00, 0x0d, 0x00, 0x00, 0x00,
  0x63, 0x6f, 0x6e, 0x76, 0x6f, 0x6c, 0x75, 0x74, 0x69, 0x6f, 0x6e, 0x5f,
  0x31, 0x00, 0x00, 0x00, 0x70, 0xf8, 0xff, 0xff, 0x32, 0xf9, 0xff, 0xff,
  0x04, 0x00, 0x00, 0x00, 0x64, 0x00, 0x00, 0x00, 0xc7, 0xbc, 0xdd, 0x3f,
  0x81, 0x62, 0x88, 0x3f, 0xb0, 0x67, 0xca, 0x3f, 0x75, 0xa1, 0x4c, 0x3f,
  0x89, 0x9d, 0xf2, 0xbf, 0x4a, 0x91, 0x4f, 0x40, 0x0b, 0x47, 0xbc, 0xbf,
  0xfa, 0x40, 0x68, 0xbf, 0xee, 0x94, 0x5f, 0xbf, 0x61, 0xfd, 0xbd, 0xbe,
  0x13, 0x9c, 0xa7, 0xbf, 0x50, 0xa0, 0xa3, 0x3f, 0xc2, 0x81, 0x29, 0xc0,
  0x34, 0x25, 0x73, 0xc0, 0x32, 0x0d, 0xb8, 0xbf, 0x37, 0x34, 0x11, 0xc0,
  0x7e, 0xbf, 0x57, 0xc0, 0x44, 0x09, 0x5a, 0xc0, 0x52, 0x9c, 0x4e, 0xc0,
  0x56, 0x9f, 0x09, 0xc0, 0x01, 0xdb, 0x96, 0xc0, 0xfe, 0x84, 0x4e, 0xbf,
  0x6b, 0x61, 0x39, 0xbf, 0x00, 0xec, 0x9f, 0xbf, 0x6b, 0x24, 0x9b, 0x3f,
  0x32, 0xf9, 0xff, 0xff, 0x10, 0x00, 0x00, 0x00, 0x08, 0x00, 0x00, 0x00,
  0x1c, 0x00, 0x00, 0x00, 0x28, 0x00, 0x00, 0x00, 0x04, 0x00, 0x00, 0x00,
  0x05, 0x00, 0x00, 0x00, 0x01, 0x00, 0x00, 0x00, 0x05, 0x00, 0x00, 0x00,
  0x01, 0x00, 0x00, 0x00, 0x0b, 0x00, 0x00, 0x00, 0x63, 0x6f, 0x6e, 0x76,
  0x6f, 0x6c, 0x75, 0x74, 0x69, 0x6f, 0x6e, 0x00, 0x1c, 0xf9, 0xff, 0xff,
  0xde, 0xf9, 0xff, 0xff, 0x04, 0x00, 0x00, 0x00, 0xc4, 0x04, 0x00, 0x00,
  0xb7, 0xf3, 0x62, 0xbe, 0x5b, 0xa4, 0xf3, 0x3e, 0x8f, 0xfc, 0xff, 0x3e,
  0x0a, 0xb5, 0x4f, 0xbe, 0x39, 0xee, 0x03, 0xbf, 0xab, 0xfd, 0xa6, 0x3e,
  0x08, 0xa5, 0xa7, 0xbe, 0x09, 0x81, 0x87, 0x3e, 0x32, 0x18, 0xb9, 0xbe,
  0x53, 0x83, 0x10, 0x3e, 0x61, 0xf3, 0x7d, 0xbe, 0x76, 0x4e, 0x0e, 0x3e,
  0x75, 0x07, 0x63, 0xbf, 0xab, 0xa6, 0x88, 0x3e, 0x76, 0x02, 0xe6, 0xbe,
  0x22, 0xab, 0xaa, 0x3e, 0xee, 0x06, 0x65, 0xbf, 0x9b, 0x0c, 0x3b, 0x3e,
  0x37, 0x14, 0x5c, 0xbe, 0xda, 0x0b, 0x25, 0x3e, 0x6a, 0xc0, 0x2a, 0xbf,
  0xab, 0x0b, 0x8b, 0x3e, 0x52, 0xd6, 0xc2, 0xbe, 0xda, 0x98, 0x72, 0xbe,
  0x8e, 0xb4, 0x7d, 0x3e, 0x5c, 0x68, 0xaa, 0xbe, 0x88, 0x80, 0x1e, 0xbf,
  0x23, 0xc5, 0x19, 0xbe, 0x6e, 0xe2, 0xd9, 0xbd, 0xd7, 0x7a, 0xd7, 0x3d,
  0x52, 0x66, 0x1f, 0xbf, 0x94, 0xae, 0x6a, 0xbe, 0x1c, 0x4f, 0xc8, 0xbe,
  0x76, 0xf6, 0x46, 0xbd, 0xa8, 0x03, 0x71, 0xbe, 0x6b, 0x30, 0x48, 0xbf,
  0xfe, 0xbd, 0x3a, 0xbe, 0x95, 0x92, 0x28, 0xbe, 0xd4, 0x62, 0x56, 0xbd,
  0xe2, 0xef, 0xc3, 0x3e, 0x9e, 0x2d, 0xf8, 0xbe, 0xca, 0x14, 0xd3, 0x3e,
  0xf8, 0x65, 0x37, 0x3e, 0xc2, 0xb0, 0x1b, 0xbe, 0xa5, 0x8e, 0x32, 0x3e,
  0xb7, 0x0e, 0x5d, 0xbe, 0xc9, 0xaf, 0x03, 0xbf, 0xfa, 0x21, 0x95, 0xbe,
  0xd1, 0xd2, 0x20, 0xbc, 0x7d, 0xb4, 0x2d, 0xbe, 0x50, 0xfb, 0x4b, 0xbd,
  0x77, 0xf0, 0x71, 0xbe, 0x0f, 0x11, 0xe9, 0xbe, 0x8a, 0x94, 0x59, 0x3e,
  0xf7, 0x6e, 0x83, 0xbf, 0xe9, 0xe7, 0xf0, 0x3e, 0xab, 0x97, 0x10, 0x3d,
  0xc8, 0x17, 0x5c, 0xbd, 0x55, 0x16, 0xf4, 0xbe, 0x06, 0x08, 0x40, 0x3e,
  0x50, 0x8d, 0x84, 0xb9, 0x34, 0x14, 0x96, 0x3c, 0xb6, 0x6c, 0xaa, 0x3e,
  0xd2, 0x4b, 0x1e, 0xbe, 0x20, 0xf3, 0x0f, 0xbe, 0x80, 0xe6, 0x92, 0x3e,
  0x5f, 0x89, 0x3d, 0x3e, 0x8c, 0x44, 0x0e, 0xbe, 0x0b, 0xd0, 0xae, 0xbc,
  0xd8, 0x24, 0x83, 0x3e, 0xa0, 0xe4, 0xc7, 0x3e, 0x96, 0x1b, 0xf3, 0xbd,
  0x81, 0xac, 0x67, 0xbe, 0x66, 0x01, 0x7e, 0x3e, 0x43, 0x87, 0x2d, 0xbe,
  0x5e, 0xa4, 0x15, 0xbe, 0xef, 0x17, 0x68, 0xbe, 0x21, 0xc4, 0x2c, 0xbd,
  0xdc, 0xa9, 0x4b, 0x3f, 0x0d, 0xe2, 0x1d, 0xbe, 0xc7, 0x2f, 0xa5, 0xbd,
  0xe8, 0x82, 0xb7, 0x3e, 0xe3, 0xe4, 0xe5, 0x3d, 0xf5, 0x9c, 0xe7, 0x3e,
  0x06, 0xef, 0x30, 0x3e, 0xd0, 0x55, 0x83, 0x3e, 0x8b, 0x69, 0x0f, 0x3e,
  0xb4, 0x8a, 0x94, 0x3e, 0x03, 0xee, 0xa8, 0xbe, 0x30, 0x45, 0x21, 0xba,
  0x50, 0xec, 0xd1, 0xbe, 0x8b, 0x53, 0xa2, 0xbe, 0x83, 0x2b, 0x9c, 0x3e,
  0x2f, 0xfd, 0x06, 0x3f, 0x7a, 0xf9, 0x8c, 0xbe, 0xd3, 0xe0, 0x0b, 0x3e,
  0xf4, 0xfc, 0xd4, 0xbd, 0x50, 0x99, 0xe1, 0x3d, 0xac, 0xbd, 0xff, 0x3d,
  0x8e, 0xdf, 0x42, 0x3e, 0x52, 0x7e, 0xd9, 0x3e, 0x68, 0x94, 0x5f, 0xbe,
  0x88, 0x2d, 0x09, 0xbf, 0xe6, 0x83, 0x08, 0xbd, 0x3e, 0xa9, 0x04, 0x3e,
  0x78, 0x39, 0xa3, 0xbe, 0xfe, 0xa3, 0x94, 0x3e, 0xfd, 0x43, 0x73, 0x3e,
  0xbd, 0x7b, 0x59, 0x3e, 0x94, 0x69, 0xa0, 0x3e, 0x61, 0x14, 0xd3, 0xbc,
  0xd8, 0xf6, 0x10, 0x3e, 0x78, 0xe1, 0xce, 0xbd, 0x0a, 0x44, 0x41, 0x3e,
  0x61, 0x07, 0xf0, 0xbe, 0xf0, 0xb4, 0xd4, 0x3e, 0xc6, 0xe7, 0x62, 0x3d,
  0xe7, 0x16, 0x49, 0xbe, 0x39, 0xe9, 0x94, 0x3d, 0xb4, 0x5d, 0x11, 0xbe,
  0x76, 0x41, 0x63, 0x3e, 0xd9, 0x3f, 0x8a, 0x3e, 0x3f, 0x2d, 0x38, 0x3f,
  0x40, 0x5a, 0xbd, 0x3d, 0x91, 0x0b, 0x8b, 0x3e, 0x75, 0x67, 0xee, 0x3e,
  0xbf, 0xe4, 0xdc, 0x3e, 0x45, 0xa8, 0x2e, 0x3e, 0xef, 0xdf, 0x4e, 0xbd,
  0x0a, 0xd1, 0xa7, 0x3e, 0x3f, 0x07, 0x3a, 0x3f, 0x49, 0xda, 0x96, 0x3d,
  0xfa, 0xe5, 0x9c, 0x3e, 0x58, 0x7b, 0x2c, 0x3e, 0x52, 0xfc, 0xa0, 0x3c,
  0xed, 0x21, 0xda, 0x3e, 0xc1, 0x63, 0x9f, 0x3d, 0xc5, 0x09, 0xf7, 0x3e,
  0x98, 0xbc, 0xf6, 0x3d, 0x4a, 0x23, 0xc8, 0xbd, 0x2a, 0x60, 0xae, 0xbe,
  0x39, 0x65, 0xb5, 0x3e, 0x9a, 0xb3, 0x9e, 0xbe, 0xea, 0xa5, 0xfd, 0xbd,
  0x98, 0x8a, 0x44, 0x3e, 0x94, 0x2a, 0x84, 0x3e, 0xf9, 0x98, 0xff, 0xbe,
  0x21, 0x02, 0xca, 0x3e, 0x87, 0x73, 0x80, 0xbd, 0x43, 0xb5, 0x04, 0x3f,
  0x79, 0x85, 0xca, 0x3e, 0x00, 0x0d, 0xc7, 0x3d, 0x38, 0x5d, 0x44, 0x3e,
  0x6e, 0xad, 0xeb, 0x3e, 0x0e, 0x5f, 0x44, 0x3e, 0xd8, 0xbd, 0xb2, 0x3e,
  0x6b, 0xf7, 0x74, 0xbe, 0xd3, 0xc4, 0x30, 0x3f, 0x71, 0x0c, 0x8d, 0xbd,
  0xe7, 0xa3, 0x11, 0x3d, 0xa4, 0x7c, 0x83, 0xbe, 0x5e, 0xa0, 0xfc, 0x3e,
  0x13, 0x63, 0xb4, 0x3e, 0x44, 0xc7, 0x84, 0x3e, 0x0d, 0x26, 0x09, 0x3e,
  0x5c, 0x38, 0x16, 0x3f, 0x27, 0xdf, 0x1e, 0xbd, 0xb6, 0x61, 0x17, 0x3f,
  0x7d, 0x84, 0x33, 0xbe, 0x99, 0xa4, 0xd9, 0x3e, 0xe5, 0xe2, 0xf8, 0xbd,
  0x96, 0x23, 0x4b, 0x3e, 0xfe, 0x9b, 0x6b, 0x3e, 0x5a, 0x48, 0xfe, 0x3e,
  0xf9, 0xf3, 0xa4, 0xbe, 0x27, 0xa5, 0xda, 0xbc, 0x1e, 0xc3, 0xc0, 0x3e,
  0x1c, 0x5a, 0x2b, 0x3f, 0xca, 0xe3, 0x05, 0x3e, 0x22, 0x1f, 0xe2, 0x3e,
  0x3d, 0x27, 0xc9, 0xbd, 0xda, 0x7a, 0x28, 0x3e, 0xeb, 0x89, 0x1c, 0xbe,
  0x02, 0xcd, 0x7c, 0x3d, 0x1f, 0x47, 0x1d, 0x3d, 0xf5, 0x3b, 0x85, 0xbe,
  0xc3, 0xf6, 0x66, 0xbe, 0xcc, 0xa0, 0xc2, 0xbd, 0x12, 0x2e, 0x2b, 0xbf,
  0x24, 0xee, 0x08, 0xbe, 0x79, 0x04, 0x9b, 0x3e, 0x1e, 0xef, 0x0d, 0xbe,
  0xed, 0x4b, 0xe8, 0x3e, 0x5c, 0x95, 0x71, 0xbe, 0x35, 0x9e, 0xad, 0x3e,
  0x2d, 0xe2, 0x8c, 0x3e, 0x12, 0xd0, 0xd4, 0xbd, 0xbc, 0xdb, 0x2f, 0x3e,
  0x5f, 0x8f, 0xc7, 0xbe, 0x9c, 0x62, 0xe0, 0x3b, 0xb8, 0xce, 0x80, 0x3c,
  0x58, 0x50, 0x30, 0x3d, 0xbb, 0x53, 0x78, 0xbe, 0x59, 0xfb, 0x8c, 0xbe,
  0x94, 0xb6, 0xea, 0x3c, 0x37, 0x75, 0xeb, 0xbd, 0xf6, 0x03, 0xdc, 0x3d,
  0xe0, 0xc3, 0xc1, 0xbe, 0xbe, 0x57, 0x24, 0x3f, 0xe0, 0x32, 0x3c, 0xbe,
  0x7c, 0x97, 0xa1, 0x3e, 0x8b, 0x4d, 0x3e, 0x3e, 0xd9, 0x7d, 0xcb, 0xbd,
  0xff, 0x31, 0xa8, 0xbe, 0x1d, 0x35, 0x94, 0x3e, 0x2f, 0x22, 0x2c, 0xbe,
  0x6e, 0x33, 0x83, 0x3e, 0x83, 0xd0, 0x89, 0x3e, 0x74, 0x55, 0xd4, 0x3e,
  0x8c, 0xb8, 0xd8, 0xbd, 0x20, 0x0e, 0x80, 0xbd, 0x61, 0x09, 0x57, 0xbe,
  0xe4, 0x99, 0x6b, 0x3e, 0x4c, 0x4d, 0x1b, 0xbd, 0xfb, 0x16, 0x36, 0x3f,
  0xe3, 0x1e, 0x10, 0xbf, 0xdc, 0xed, 0xc1, 0xbe, 0x2e, 0x0b, 0xfd, 0xbe,
  0xfd, 0xc5, 0x9f, 0x3e, 0x49, 0x73, 0x9d, 0x3e, 0xd8, 0x1c, 0x81, 0x3e,
  0xf0, 0x9c, 0x3a, 0x3e, 0xba, 0x4e, 0x5d, 0x3e, 0x81, 0x29, 0x10, 0x3d,
  0x9a, 0x9c, 0x01, 0xbd, 0x2e, 0x22, 0x50, 0xbe, 0x6c, 0xda, 0x6b, 0xbc,
  0xe6, 0xfd, 0x2a, 0xbe, 0xa1, 0xd0, 0x08, 0xbf, 0x78, 0x50, 0xe2, 0xbe,
  0xac, 0x8b, 0x32, 0x3b, 0xfc, 0x55, 0xd3, 0xbe, 0xcb, 0x84, 0xca, 0x3e,
  0x45, 0xab, 0x03, 0x3e, 0x44, 0xaa, 0xbe, 0x3e, 0x91, 0x1e, 0x1d, 0xbf,
  0x13, 0xa0, 0x8b, 0x3e, 0xc9, 0xdb, 0x03, 0x3e, 0x2c, 0x37, 0xc6, 0x3e,
  0x60, 0xac, 0x5f, 0xbe, 0xf3, 0xe2, 0x27, 0x3f, 0x0b, 0xfe, 0x1b, 0xbf,
  0x86, 0x5d, 0xc4, 0x3e, 0xf4, 0xba, 0xf5, 0xbe, 0x47, 0x18, 0x63, 0x3f,
  0x44, 0x34, 0xed, 0xbe, 0xf4, 0xc4, 0x2c, 0x3f, 0xac, 0xa1, 0x86, 0xbe,
  0xc4, 0xfc, 0x71, 0x3f, 0x15, 0x53, 0x2a, 0xbf, 0xe8, 0xae, 0x34, 0x3f,
  0xfb, 0xb7, 0xc0, 0xbe, 0x12, 0xc1, 0x63, 0x3f, 0xe6, 0xf5, 0xbd, 0xbe,
  0xa0, 0xe8, 0x21, 0xbd, 0x49, 0x19, 0x79, 0xbe, 0xd6, 0x59, 0xc7, 0x3d,
  0xc6, 0x71, 0x32, 0xbf, 0xd4, 0x2b, 0x1a, 0xbc, 0x53, 0x1c, 0xca, 0x3e,
  0x45, 0xbe, 0x0a, 0x3d, 0xec, 0x8c, 0x03, 0xbe, 0x97, 0xe1, 0x74, 0x3f,
  0xaa, 0x60, 0x9d, 0xbe, 0xd2, 0xe3, 0x0d, 0x3f, 0x68, 0x2e, 0x1b, 0xbf,
  0xa9, 0xbe, 0x93, 0x3e, 0xc8, 0x0a, 0xca, 0xbd, 0xb0, 0xc6, 0xef, 0x3e,
  0x28, 0xc0, 0xca, 0xbe, 0xfc, 0xec, 0xfa, 0x3e, 0xca, 0x3a, 0xd8, 0x3b,
  0x97, 0xda, 0x47, 0x3e, 0x7a, 0xa8, 0xdd, 0xbe, 0x24, 0x29, 0xac, 0x3e,
  0xc8, 0x1c, 0xf8, 0xbe, 0xd6, 0x06, 0xeb, 0x3e, 0x66, 0xc9, 0x93, 0xbd,
  0xd4, 0x74, 0xb7, 0x3e, 0xe8, 0x6e, 0x3d, 0xbf, 0x30, 0xca, 0x0f, 0x3f,
  0x28, 0x43, 0x93, 0xbe, 0x4a, 0x16, 0x1b, 0x3f, 0xba, 0xdc, 0x51, 0x3e,
  0xfd, 0xb5, 0xa8, 0x3e, 0x35, 0x8d, 0xae, 0xbe, 0x78, 0x37, 0x5a, 0x3f,
  0xef, 0x39, 0x4e, 0xbf, 0xcc, 0xdc, 0x09, 0x3d, 0x34, 0xda, 0xef, 0xbe,
  0x71, 0xc1, 0x53, 0x3f, 0xd6, 0xd3, 0x3b, 0xbf, 0xdb, 0xec, 0xd0, 0x3e,
  0x2b, 0xe0, 0x4f, 0xbf, 0xa9, 0x79, 0xf4, 0x3e, 0x3e, 0xfe, 0xff, 0xff,
  0x10, 0x00, 0x00, 0x00, 0x07, 0x00, 0x00, 0x00, 0x14, 0x00, 0x00, 0x00,
  0x1c, 0x00, 0x00, 0x00, 0x02, 0x00, 0x00, 0x00, 0x01, 0x00, 0x00, 0x00,
  0x31, 0x01, 0x00, 0x00, 0x06, 0x00, 0x00, 0x00, 0x4d, 0x61, 0x74, 0x4d,
  0x75, 0x6c, 0x00, 0x00, 0x1c, 0xfe, 0xff, 0xff, 0xde, 0xfe, 0xff, 0xff,
  0x04, 0x00, 0x00, 0x00, 0x04, 0x00, 0x00, 0x00, 0x6b, 0x2c, 0xa4, 0xbf,
  0x7e, 0xfe, 0xff, 0xff, 0x10, 0x00, 0x00, 0x00, 0x06, 0x00, 0x00, 0x00,
  0x10, 0x00, 0x00, 0x00, 0x18, 0x00, 0x00, 0x00, 0x01, 0x00, 0x00, 0x00,
  0x01, 0x00, 0x00, 0x00, 0x07, 0x00, 0x00, 0x00, 0x43, 0x6f, 0x6e, 0x73,
  0x74, 0x5f, 0x35, 0x00, 0x58, 0xfe, 0xff, 0xff, 0x1a, 0xff, 0xff, 0xff,
  0x04, 0x00, 0x00, 0x00, 0x14, 0x00, 0x00, 0x00, 0xde, 0xa0, 0xa4, 0xbe,
  0x4b, 0x42, 0xc8, 0xbf, 0xcc, 0x1b, 0x70, 0x3f, 0x3c, 0x54, 0x84, 0x3f,
  0x65, 0x1a, 0xd1, 0xbe, 0xca, 0xfe, 0xff, 0xff, 0x10, 0x00, 0x00, 0x00,
  0x05, 0x00, 0x00, 0x00, 0x10, 0x00, 0x00, 0x00, 0x18, 0x00, 0x00, 0x00,
  0x01, 0x00, 0x00, 0x00, 0x05, 0x00, 0x00, 0x00, 0x07, 0x00, 0x00, 0x00,
  0x43, 0x6f, 0x6e, 0x73, 0x74, 0x5f, 0x33, 0x00, 0xa4, 0xfe, 0xff, 0xff,
  0x66, 0xff, 0xff, 0xff, 0x04, 0x00, 0x00, 0x00, 0x14, 0x00, 0x00, 0x00,
  0xa5, 0x7e, 0x2c, 0x3e, 0xe5, 0xb1, 0x46, 0xc0, 0x8c, 0xa9, 0xe1, 0xc0,
  0xd9, 0x96, 0xe0, 0xc0, 0x7f, 0xcd, 0x31, 0xc0, 0x16, 0xff, 0xff, 0xff,
  0x10, 0x00, 0x00, 0x00, 0x04, 0x00, 0x00, 0x00, 0x10, 0x00, 0x00, 0x00,
  0x18, 0x00, 0x00, 0x00, 0x01, 0x00, 0x00, 0x00, 0x05, 0x00, 0x00, 0x00,
  0x07, 0x00, 0x00, 0x00, 0x43, 0x6f, 0x6e, 0x73, 0x74, 0x5f, 0x31, 0x00,
  0xf0, 0xfe, 0xff, 0xff, 0xb2, 0xff, 0xff, 0xff, 0x04, 0x00, 0x00, 0x00,
  0x08, 0x00, 0x00, 0x00, 0xff, 0xff, 0xff, 0xff, 0x31, 0x01, 0x00, 0x00,
  0xa6, 0xff, 0xff, 0xff, 0x00, 0x00, 0x00, 0x02, 0x10, 0x00, 0x00, 0x00,
  0x03, 0x00, 0x00, 0x00, 0x10, 0x00, 0x00, 0x00, 0x20, 0x00, 0x00, 0x00,
  0x01, 0x00, 0x00, 0x00, 0x02, 0x00, 0x00, 0x00, 0x0d, 0x00, 0x00, 0x00,
  0x66, 0x6c, 0x61, 0x74, 0x74, 0x65, 0x6e, 0x2f, 0x43, 0x6f, 0x6e, 0x73,
  0x74, 0x00, 0x00, 0x00, 0x94, 0xff, 0xff, 0xff, 0x00, 0x00, 0x06, 0x00,
  0x08, 0x00, 0x04, 0x00, 0x06, 0x00, 0x00, 0x00, 0x04, 0x00, 0x00, 0x00,
  0x0c, 0x00, 0x00, 0x00, 0x00, 0x00, 0x00, 0x00, 0x02, 0x00, 0x00, 0x00,
  0x01, 0x00, 0x00, 0x00, 0x00, 0x00, 0x0e, 0x00, 0x18, 0x00, 0x08, 0x00,
  0x07, 0x00, 0x0c, 0x00, 0x10, 0x00, 0x14, 0x00, 0x0e, 0x00, 0x00, 0x00,
  0x00, 0x00, 0x00, 0x02, 0x10, 0x00, 0x00, 0x00, 0x02, 0x00, 0x00, 0x00,
  0x10, 0x00, 0x00, 0x00, 0x28, 0x00, 0x00, 0x00, 0x01, 0x00, 0x00, 0x00,
  0x03, 0x00, 0x00, 0x00, 0x10, 0x00, 0x00, 0x00, 0x74, 0x72, 0x61, 0x6e,
  0x73, 0x70, 0x6f, 0x73, 0x65, 0x5f, 0x31, 0x2f, 0x70, 0x65, 0x72, 0x6d,
  0x00, 0x00, 0x00, 0x00, 0x04, 0x00, 0x06, 0x00, 0x04, 0x00, 0x00, 0x00,
  0x00, 0x00, 0x0e, 0x00, 0x14, 0x00, 0x04, 0x00, 0x00, 0x00, 0x08, 0x00,
  0x0c, 0x00, 0x10, 0x00, 0x0e, 0x00, 0x00, 0x00, 0x10, 0x00, 0x00, 0x00,
  0x01, 0x00, 0x00, 0x00, 0x14, 0x00, 0x00, 0x00, 0x2c, 0x00, 0x00, 0x00,
  0x02, 0x00, 0x00, 0x00, 0x01, 0x00, 0x00, 0x00, 0x45, 0x00, 0x00, 0x00,
  0x17, 0x00, 0x00, 0x00, 0x73, 0x65, 0x72, 0x76, 0x69, 0x6e, 0x67, 0x5f,
  0x64, 0x65, 0x66, 0x61, 0x75, 0x6c, 0x74, 0x5f, 0x69, 0x6e, 0x70, 0x75,
  0x74, 0x3a, 0x30, 0x00, 0xfc, 0xff, 0xff, 0xff, 0x04, 0x00, 0x04, 0x00,
  0x04, 0x00, 0x00, 0x00
};
unsigned int g_model_len = 5152;
