unsigned char g_model[] = {
  0x1c, 0x00, 0x00, 0x00, 0x54, 0x46, 0x4c, 0x33, 0x14, 0x00, 0x20, 0x00,
  0x04, 0x00, 0x08, 0x00, 0x0c, 0x00, 0x10, 0x00, 0x14, 0x00, 0x00, 0x00,
  0x18, 0x00, 0x1c, 0x00, 0x14, 0x00, 0x00, 0x00, 0x03, 0x00, 0x00, 0x00,
  0x18, 0x00, 0x00, 0x00, 0x2c, 0x00, 0x00, 0x00, 0x54, 0x01, 0x00, 0x00,
  0x2c, 0x00, 0x00, 0x00, 0xfc, 0x00, 0x00, 0x00, 0x7c, 0x00, 0x00, 0x00,
  0x05, 0x00, 0x00, 0x00, 0x30, 0x06, 0x00, 0x00, 0x64, 0x05, 0x00, 0x00,
  0x7c, 0x03, 0x00, 0x00, 0xa0, 0x02, 0x00, 0x00, 0x1c, 0x02, 0x00, 0x00,
  0x01, 0x00, 0x00, 0x00, 0x4c, 0x01, 0x00, 0x00, 0x15, 0x00, 0x00, 0x00,
  0xec, 0x10, 0x00, 0x00, 0xe8, 0x10, 0x00, 0x00, 0x28, 0x10, 0x00, 0x00,
  0xd0, 0x0f, 0x00, 0x00, 0x80, 0x0f, 0x00, 0x00, 0x30, 0x0f, 0x00, 0x00,
  0xf0, 0x0e, 0x00, 0x00, 0xec, 0x09, 0x00, 0x00, 0x3c, 0x09, 0x00, 0x00,
  0xf8, 0x06, 0x00, 0x00, 0x98, 0x06, 0x00, 0x00, 0x3c, 0x06, 0x00, 0x00,
  0xbc, 0x10, 0x00, 0x00, 0xb8, 0x10, 0x00, 0x00, 0xb4, 0x10, 0x00, 0x00,
  0xb0, 0x10, 0x00, 0x00, 0xac, 0x10, 0x00, 0x00, 0xa8, 0x10, 0x00, 0x00,
  0xa4, 0x10, 0x00, 0x00, 0xa0, 0x10, 0x00, 0x00, 0xb4, 0x00, 0x00, 0x00,
  0x01, 0x00, 0x00, 0x00, 0x10, 0x00, 0x00, 0x00, 0x00, 0x00, 0x0a, 0x00,
  0x10, 0x00, 0x0c, 0x00, 0x08, 0x00, 0x04, 0x00, 0x0a, 0x00, 0x00, 0x00,
  0x0c, 0x00, 0x00, 0x00, 0x1c, 0x00, 0x00, 0x00, 0x20, 0x00, 0x00, 0x00,
  0x0f, 0x00, 0x00, 0x00, 0x73, 0x65, 0x72, 0x76, 0x69, 0x6e, 0x67, 0x5f,
  0x64, 0x65, 0x66, 0x61, 0x75, 0x6c, 0x74, 0x00, 0x01, 0x00, 0x00, 0x00,
  0x14, 0x00, 0x00, 0x00, 0x01, 0x00, 0x00, 0x00, 0x24, 0x00, 0x00, 0x00,
  0x08, 0x00, 0x0c, 0x00, 0x08, 0x00, 0x04, 0x00, 0x08, 0x00, 0x00, 0x00,
  0x12, 0x00, 0x00, 0x00, 0x04, 0x00, 0x00, 0x00, 0x06, 0x00, 0x00, 0x00,
  0x6f, 0x75, 0x74, 0x70, 0x75, 0x74, 0x00, 0x00, 0x92, 0xf0, 0xff, 0xff,
  0x04, 0x00, 0x00, 0x00, 0x05, 0x00, 0x00, 0x00, 0x69, 0x6e, 0x70, 0x75,
  0x74, 0x00, 0x00, 0x00, 0x01, 0x00, 0x00, 0x00, 0x0c, 0x00, 0x00, 0x00,
  0x08, 0x00, 0x0c, 0x00, 0x04, 0x00, 0x08, 0x00, 0x08, 0x00, 0x00, 0x00,
  0x08, 0x00, 0x00, 0x00, 0x14, 0x00, 0x00, 0x00, 0x13, 0x00, 0x00, 0x00,
  0x6d, 0x69, 0x6e, 0x5f, 0x72, 0x75, 0x6e, 0x74, 0x69, 0x6d, 0x65, 0x5f,
  0x76, 0x65, 0x72, 0x73, 0x69, 0x6f, 0x6e, 0x00, 0xda, 0xf0, 0xff, 0xff,
  0x04, 0x00, 0x00, 0x00, 0x10, 0x00, 0x00, 0x00, 0x31, 0x2e, 0x31, 0x34,
  0x2e, 0x30, 0x00, 0x00, 0x00, 0x00, 0x00, 0x00, 0x00, 0x00, 0x00, 0x00,
  0x0f, 0x00, 0x00, 0x00, 0x4d, 0x4c, 0x49, 0x52, 0x20, 0x43, 0x6f, 0x6e,
  0x76, 0x65, 0x72, 0x74, 0x65, 0x64, 0x2e, 0x00, 0x00, 0x00, 0x0e, 0x00,
  0x18, 0x00, 0x04, 0x00, 0x08, 0x00, 0x0c, 0x00, 0x10, 0x00, 0x14, 0x00,
  0x0e, 0x00, 0x00, 0x00, 0x14, 0x00, 0x00, 0x00, 0x60, 0x00, 0x00, 0x00,
  0x64, 0x00, 0x00, 0x00, 0x68, 0x00, 0x00, 0x00, 0x88, 0x00, 0x00, 0x00,
  0x13, 0x00, 0x00, 0x00, 0x48, 0x0f, 0x00, 0x00, 0xf4, 0x0e, 0x00, 0x00,
  0x88, 0x0e, 0x00, 0x00, 0x44, 0x0e, 0x00, 0x00, 0xf4, 0x0d, 0x00, 0x00,
  0xa4, 0x0d, 0x00, 0x00, 0x60, 0x0d, 0x00, 0x00, 0x50, 0x08, 0x00, 0x00,
  0x9c, 0x07, 0x00, 0x00, 0x58, 0x05, 0x00, 0x00, 0xf8, 0x04, 0x00, 0x00,
  0x94, 0x04, 0x00, 0x00, 0xc8, 0x03, 0x00, 0x00, 0xe0, 0x02, 0x00, 0x00,
  0x34, 0x02, 0x00, 0x00, 0xd8, 0x01, 0x00, 0x00, 0x54, 0x01, 0x00, 0x00,
  0xf8, 0x00, 0x00, 0x00, 0x74, 0x00, 0x00, 0x00, 0x01, 0x00, 0x00, 0x00,
  0x00, 0x00, 0x00, 0x00, 0x01, 0x00, 0x00, 0x00, 0x12, 0x00, 0x00, 0x00,
  0x08, 0x00, 0x00, 0x00, 0x24, 0x04, 0x00, 0x00, 0x38, 0x03, 0x00, 0x00,
  0x6c, 0x02, 0x00, 0x00, 0xe0, 0x01, 0x00, 0x00, 0x70, 0x01, 0x00, 0x00,
  0x00, 0x01, 0x00, 0x00, 0x80, 0x00, 0x00, 0x00, 0x10, 0x00, 0x00, 0x00,
  0x04, 0x00, 0x00, 0x00, 0x6d, 0x61, 0x69, 0x6e, 0x00, 0x00, 0x00, 0x00,
  0xb6, 0xfe, 0xff, 0xff, 0x04, 0x00, 0x00, 0x00, 0x10, 0x00, 0x00, 0x00,
  0x04, 0x00, 0x00, 0x00, 0x01, 0x00, 0x00, 0x00, 0x12, 0x00, 0x00, 0x00,
  0x01, 0x00, 0x00, 0x00, 0x11, 0x00, 0x00, 0x00, 0x08, 0xfc, 0xff, 0xff,
  0x0e, 0x00, 0x00, 0x00, 0x00, 0x00, 0x00, 0x0e, 0x01, 0x00, 0x00, 0x00,
  0x82, 0xf1, 0xff, 0xff, 0x10, 0x00, 0x00, 0x00, 0x13, 0x00, 0x00, 0x00,
  0x14, 0x00, 0x00, 0x00, 0x28, 0x00, 0x00, 0x00, 0x02, 0x00, 0x00, 0x00,
  0x01, 0x00, 0x00, 0x00, 0x01, 0x00, 0x00, 0x00, 0x11, 0x00, 0x00, 0x00,
  0x50, 0x61, 0x72, 0x74, 0x69, 0x74, 0x69, 0x6f, 0x6e, 0x65, 0x64, 0x43,
  0x61, 0x6c, 0x6c, 0x3a, 0x30, 0x00, 0x00, 0x00, 0x6c, 0xf1, 0xff, 0xff,
  0x6a, 0xfd, 0xff, 0xff, 0x00, 0x00, 0x00, 0x08, 0x03, 0x00, 0x00, 0x00,
  0x18, 0x00, 0x00, 0x00, 0x0c, 0x00, 0x00, 0x00, 0x04, 0x00, 0x00, 0x00,
  0x88, 0xf1, 0xff, 0xff, 0x01, 0x00, 0x00, 0x00, 0x11, 0x00, 0x00, 0x00,
  0x03, 0x00, 0x00, 0x00, 0x10, 0x00, 0x00, 0x00, 0x06, 0x00, 0x00, 0x00,
  0x05, 0x00, 0x00, 0x00, 0x88, 0xfc, 0xff, 0xff, 0x09, 0x00, 0x00, 0x00,
  0x00, 0x00, 0x00, 0x09, 0x01, 0x00, 0x00, 0x00, 0x02, 0xf2, 0xff, 0xff,
  0x10, 0x00, 0x00, 0x00, 0x12, 0x00, 0x00, 0x00, 0x14, 0x00, 0x00, 0x00,
  0x24, 0x00, 0x00, 0x00, 0x02, 0x00, 0x00, 0x00, 0x01, 0x00, 0x00, 0x00,
  0x01, 0x00, 0x00, 0x00, 0x0c, 0x00, 0x00, 0x00, 0x4d, 0x61, 0x74, 0x4d,
  0x75, 0x6c, 0x3b, 0x61, 0x64, 0x64, 0x5f, 0x32, 0x00, 0x00, 0x00, 0x00,
  0xe8, 0xf1, 0xff, 0xff, 0xfa, 0xfc, 0xff, 0xff, 0x10, 0x00, 0x00, 0x00,
  0x04, 0x00, 0x00, 0x00, 0x01, 0x00, 0x00, 0x00, 0x10, 0x00, 0x00, 0x00,
  0x02, 0x00, 0x00, 0x00, 0x0f, 0x00, 0x00, 0x00, 0x02, 0x00, 0x00, 0x00,
  0x5a, 0xf2, 0xff, 0xff, 0x10, 0x00, 0x00, 0x00, 0x11, 0x00, 0x00, 0x00,
  0x14, 0x00, 0x00, 0x00, 0x2c, 0x00, 0x00, 0x00, 0x02, 0x00, 0x00, 0x00,
  0x01, 0x00, 0x00, 0x00, 0x31, 0x01, 0x00, 0x00, 0x17, 0x00, 0x00, 0x00,
  0x66, 0x6c, 0x61, 0x74, 0x74, 0x65, 0x6e, 0x2f, 0x52, 0x65, 0x73, 0x68,
  0x61, 0x70, 0x65, 0x3b, 0x52, 0x65, 0x73, 0x68, 0x61, 0x70, 0x65, 0x00,
  0xa0, 0xf2, 0xff, 0xff, 0x00, 0x00, 0x0a, 0x00, 0x10, 0x00, 0x04, 0x00,
  0x08, 0x00, 0x0c, 0x00, 0x0a, 0x00, 0x00, 0x00, 0x02, 0x00, 0x00, 0x00,
  0x10, 0x00, 0x00, 0x00, 0x04, 0x00, 0x00, 0x00, 0x01, 0x00, 0x00, 0x00,
  0x0f, 0x00, 0x00, 0x00, 0x02, 0x00, 0x00, 0x00, 0x0e, 0x00, 0x00, 0x00,
  0x01, 0x00, 0x00, 0x00, 0x60, 0xfd, 0xff, 0xff, 0x27, 0x00, 0x00, 0x00,
  0x00, 0x00, 0x00, 0x27, 0x01, 0x00, 0x00, 0x00, 0xda, 0xf2, 0xff, 0xff,
  0x10, 0x00, 0x00, 0x00, 0x10, 0x00, 0x00, 0x00, 0x18, 0x00, 0x00, 0x00,
  0x24, 0x00, 0x00, 0x00, 0x03, 0x00, 0x00, 0x00, 0x01, 0x00, 0x00, 0x00,
  0x05, 0x00, 0x00, 0x00, 0x3d, 0x00, 0x00, 0x00, 0x0b, 0x00, 0x00, 0x00,
  0x74, 0x72, 0x61, 0x6e, 0x73, 0x70, 0x6f, 0x73, 0x65, 0x5f, 0x35, 0x00,
  0xc0, 0xf2, 0xff, 0xff, 0xd2, 0xfd, 0xff, 0xff, 0x10, 0x00, 0x00, 0x00,
  0x04, 0x00, 0x00, 0x00, 0x01, 0x00, 0x00, 0x00, 0x0e, 0x00, 0x00, 0x00,
  0x02, 0x00, 0x00, 0x00, 0x0d, 0x00, 0x00, 0x00, 0x0a, 0x00, 0x00, 0x00,
  0x32, 0xf3, 0xff, 0xff, 0x10, 0x00, 0x00, 0x00, 0x0f, 0x00, 0x00, 0x00,
  0x18, 0x00, 0x00, 0x00, 0x54, 0x00, 0x00, 0x00, 0x03, 0x00, 0x00, 0x00,
  0x01, 0x00, 0x00, 0x00, 0x3d, 0x00, 0x00, 0x00, 0x05, 0x00, 0x00, 0x00,
  0x39, 0x00, 0x00, 0x00, 0x6f, 0x6e, 0x6e, 0x78, 0x5f, 0x74, 0x66, 0x5f,
  0x70, 0x72, 0x65, 0x66, 0x69, 0x78, 0x5f, 0x52, 0x65, 0x6c, 0x75, 0x5f,
  0x34, 0x3b, 0x41, 0x64, 0x64, 0x5f, 0x31, 0x3b, 0x63, 0x6f, 0x6e, 0x76,
  0x6f, 0x6c, 0x75, 0x74, 0x69, 0x6f, 0x6e, 0x5f, 0x31, 0x2f, 0x53, 0x71,
  0x75, 0x65, 0x65, 0x7a, 0x65, 0x3b, 0x43, 0x6f, 0x6e, 0x73, 0x74, 0x5f,
  0x33, 0x00, 0x00, 0x00, 0x48, 0xf3, 0xff, 0xff, 0x46, 0xff, 0xff, 0xff,
  0x00, 0x00, 0x00, 0x01, 0x01, 0x00, 0x00, 0x00, 0x24, 0x00, 0x00, 0x00,
  0x18, 0x00, 0x00, 0x00, 0x04, 0x00, 0x00, 0x00, 0x38, 0xff, 0xff, 0xff,
  0x01, 0x00, 0x00, 0x00, 0x01, 0x00, 0x00, 0x00, 0x00, 0x00, 0x01, 0x01,
  0x01, 0x00, 0x00, 0x00, 0x0d, 0x00, 0x00, 0x00, 0x03, 0x00, 0x00, 0x00,
  0x0c, 0x00, 0x00, 0x00, 0x08, 0x00, 0x00, 0x00, 0x04, 0x00, 0x00, 0x00,
  0xda, 0xf3, 0xff, 0xff, 0x10, 0x00, 0x00, 0x00, 0x0e, 0x00, 0x00, 0x00,
  0x1c, 0x00, 0x00, 0x00, 0x64, 0x00, 0x00, 0x00, 0x04, 0x00, 0x00, 0x00,
  0x01, 0x00, 0x00, 0x00, 0x01, 0x00, 0x00, 0x00, 0x3d, 0x00, 0x00, 0x00,
  0x05, 0x00, 0x00, 0x00, 0x47, 0x00, 0x00, 0x00, 0x6f, 0x6e, 0x6e, 0x78,
  0x5f, 0x74, 0x66, 0x5f, 0x70, 0x72, 0x65, 0x66, 0x69, 0x78, 0x5f, 0x52,
  0x65, 0x6c, 0x75, 0x5f, 0x34, 0x3b, 0x41, 0x64, 0x64, 0x5f, 0x31, 0x3b,
  0x63, 0x6f, 0x6e, 0x76, 0x6f, 0x6c, 0x75, 0x74, 0x69, 0x6f, 0x6e, 0x5f,
  0x31, 0x2f, 0x53, 0x71, 0x75, 0x65, 0x65, 0x7a, 0x65, 0x3b, 0x43, 0x6f,
  0x6e, 0x73, 0x74, 0x5f, 0x33, 0x3b, 0x63, 0x6f, 0x6e, 0x76, 0x6f, 0x6c,
  0x75, 0x74, 0x69, 0x6f, 0x6e, 0x5f, 0x31, 0x00, 0x58, 0xf4, 0xff, 0xff,
  0x00, 0x00, 0x0e, 0x00, 0x18, 0x00, 0x08, 0x00, 0x0c, 0x00, 0x10, 0x00,
  0x07, 0x00, 0x14, 0x00, 0x0e, 0x00, 0x00, 0x00, 0x00, 0x00, 0x00, 0x01,
  0x01, 0x00, 0x00, 0x00, 0x30, 0x00, 0x00, 0x00, 0x24, 0x00, 0x00, 0x00,
  0x10, 0x00, 0x00, 0x00, 0x0c, 0x00, 0x10, 0x00, 0x0e, 0x00, 0x04, 0x00,
  0x08, 0x00, 0x0f, 0x00, 0x0c, 0x00, 0x00, 0x00, 0x01, 0x00, 0x00, 0x00,
  0x01, 0x00, 0x00, 0x00, 0x00, 0x00, 0x01, 0x01, 0x01, 0x00, 0x00, 0x00,
  0x0c, 0x00, 0x00, 0x00, 0x03, 0x00, 0x00, 0x00, 0x0b, 0x00, 0x00, 0x00,
  0x07, 0x00, 0x00, 0x00, 0x03, 0x00, 0x00, 0x00, 0x44, 0xff, 0xff, 0xff,
  0x03, 0x00, 0x00, 0x00, 0x00, 0x00, 0x00, 0x03, 0x01, 0x00, 0x00, 0x00,
  0xbe, 0xf4, 0xff, 0xff, 0x10, 0x00, 0x00, 0x00, 0x0d, 0x00, 0x00, 0x00,
  0x1c, 0x00, 0x00, 0x00, 0x6c, 0x00, 0x00, 0x00, 0x04, 0x00, 0x00, 0x00,
  0x01, 0x00, 0x00, 0x00, 0x01, 0x00, 0x00, 0x00, 0x41, 0x00, 0x00, 0x00,
  0x05, 0x00, 0x00, 0x00, 0x4f, 0x00, 0x00, 0x00, 0x6f, 0x6e, 0x6e, 0x78,
  0x5f, 0x74, 0x66, 0x5f, 0x70, 0x72, 0x65, 0x66, 0x69, 0x78, 0x5f, 0x52,
  0x65, 0x6c, 0x75, 0x5f, 0x32, 0x3b, 0x41, 0x64, 0x64, 0x3b, 0x63, 0x6f,
  0x6e, 0x76, 0x6f, 0x6c, 0x75, 0x74, 0x69, 0x6f, 0x6e, 0x2f, 0x53, 0x71,
  0x75, 0x65, 0x65, 0x7a, 0x65, 0x3b, 0x43, 0x6f, 0x6e, 0x73, 0x74, 0x5f,
  0x31, 0x3b, 0x63, 0x6f, 0x6e, 0x76, 0x6f, 0x6c, 0x75, 0x74, 0x69, 0x6f,
  0x6e, 0x5f, 0x31, 0x3b, 0x63, 0x6f, 0x6e, 0x76, 0x6f, 0x6c, 0x75, 0x74,
  0x69, 0x6f, 0x6e, 0x00, 0x44, 0xf5, 0xff, 0xff, 0x00, 0x00, 0x0a, 0x00,
  0x0c, 0x00, 0x00, 0x00, 0x04, 0x00, 0x08, 0x00, 0x0a, 0x00, 0x00, 0x00,
  0x10, 0x00, 0x00, 0x00, 0x04, 0x00, 0x00, 0x00, 0x01, 0x00, 0x00, 0x00,
  0x0b, 0x00, 0x00, 0x00, 0x02, 0x00, 0x00, 0x00, 0x00, 0x00, 0x00, 0x00,
  0x09, 0x00, 0x00, 0x00, 0x0c, 0x00, 0x10, 0x00, 0x0b, 0x00, 0x00, 0x00,
  0x0c, 0x00, 0x04, 0x00, 0x0c, 0x00, 0x00, 0x00, 0x16, 0x00, 0x00, 0x00,
  0x00, 0x00, 0x00, 0x16, 0x01, 0x00, 0x00, 0x00, 0x86, 0xf5, 0xff, 0xff,
  0x10, 0x00, 0x00, 0x00, 0x0c, 0x00, 0x00, 0x00, 0x1c, 0x00, 0x00, 0x00,
  0x34, 0x00, 0x00, 0x00, 0x04, 0x00, 0x00, 0x00, 0x01, 0x00, 0x00, 0x00,
  0x01, 0x00, 0x00, 0x00, 0x45, 0x00, 0x00, 0x00, 0x01, 0x00, 0x00, 0x00,
  0x17, 0x00, 0x00, 0x00, 0x63, 0x6f, 0x6e, 0x76, 0x6f, 0x6c, 0x75, 0x74,
  0x69, 0x6f, 0x6e, 0x2f, 0x45, 0x78, 0x70, 0x61, 0x6e, 0x64, 0x44, 0x69,
  0x6d, 0x73, 0x31, 0x00, 0x7c, 0xf5, 0xff, 0xff, 0x3e, 0xf6, 0xff, 0xff,
  0x04, 0x00, 0x00, 0x00, 0x0c, 0x00, 0x00, 0x00, 0x01, 0x00, 0x00, 0x00,
  0x3d, 0x00, 0x00, 0x00, 0x05, 0x00, 0x00, 0x00, 0x36, 0xf6, 0xff, 0xff,
  0x00, 0x00, 0x00, 0x02, 0x10, 0x00, 0x00, 0x00, 0x0b, 0x00, 0x00, 0x00,
  0x10, 0x00, 0x00, 0x00, 0x28, 0x00, 0x00, 0x00, 0x01, 0x00, 0x00, 0x00,
  0x03, 0x00, 0x00, 0x00, 0x15, 0x00, 0x00, 0x00, 0x63, 0x6f, 0x6e, 0x76,
  0x6f, 0x6c, 0x75, 0x74, 0x69, 0x6f, 0x6e, 0x5f, 0x31, 0x2f, 0x53, 0x71,
  0x75, 0x65, 0x65, 0x7a, 0x65, 0x00, 0x00, 0x00, 0xd4, 0xf5, 0xff, 0xff,
  0x96, 0xf6, 0xff, 0xff, 0x04, 0x00, 0x00, 0x00, 0x10, 0x00, 0x00, 0x00,
  0x01, 0x00, 0x00, 0x00, 0x01, 0x00, 0x00, 0x00, 0x45, 0x00, 0x00, 0x00,
  0x01, 0x00, 0x00, 0x00, 0x92, 0xf6, 0xff, 0xff, 0x00, 0x00, 0x00, 0x02,
  0x10, 0x00, 0x00, 0x00, 0x0a, 0x00, 0x00, 0x00, 0x10, 0x00, 0x00, 0x00,
  0x28, 0x00, 0x00, 0x00, 0x01, 0x00, 0x00, 0x00, 0x04, 0x00, 0x00, 0x00,
  0x16, 0x00, 0x00, 0x00, 0x63, 0x6f, 0x6e, 0x76, 0x6f, 0x6c, 0x75, 0x74,
  0x69, 0x6f, 0x6e, 0x2f, 0x45, 0x78, 0x70, 0x61, 0x6e, 0x64, 0x44, 0x69,
  0x6d, 0x73, 0x00, 0x00, 0x30, 0xf6, 0xff, 0xff, 0xf2, 0xf6, 0xff, 0xff,
  0x04, 0x00, 0x00, 0x00, 0xf4, 0x01, 0x00, 0x00, 0xc7, 0x1e, 0xd0, 0xb6,
  0x00, 0xa7, 0xd0, 0x32, 0x44, 0xc5, 0x98, 0xb5, 0xe7, 0xf6, 0xe7, 0xb2,
  0xb2, 0x15, 0xc9, 0x32, 0x6b, 0xc8, 0xb3, 0xb6, 0xd6, 0xc3, 0x71, 0x32,
  0xd0, 0x02, 0x84, 0xb6, 0xb8, 0x40, 0xa7, 0x32, 0xd6, 0x61, 0xdc, 0x32,
  0xb4, 0x60, 0x24, 0x34, 0x67, 0x4c, 0x26, 0x34, 0xdf, 0x03, 0x82, 0x34,
  0xa6, 0xe4, 0x23, 0x32, 0x01, 0xfa, 0xd9, 0xb2, 0x4c, 0xd4, 0xf7, 0x35,
  0x3d, 0xf3, 0xc3, 0xb6, 0x08, 0x11, 0x23, 0x36, 0x8f, 0x22, 0xe0, 0xb2,
  0x62, 0x0c, 0x12, 0xb2, 0x33, 0xb7, 0x40, 0x37, 0xd9, 0x1b, 0xb4, 0xb4,
  0xff, 0xf6, 0xa0, 0xb4, 0x25, 0x8e, 0xe6, 0x32, 0xdc, 0xad, 0x17, 0x31,
  0xf3, 0x97, 0xd3, 0xb5, 0xa4, 0x3a, 0x73, 0xbf, 0xf8, 0x7d, 0x86, 0xbf,
  0xb9, 0x1d, 0x06, 0xb2, 0x29, 0x70, 0x20, 0x32, 0xfe, 0xa9, 0x27, 0xb6,
  0x49, 0x67, 0x68, 0xbf, 0x0d, 0x20, 0x5d, 0xbf, 0x74, 0x4b, 0xde, 0xb2,
  0xb5, 0x05, 0xa9, 0x31, 0x25, 0x72, 0x0c, 0xb5, 0x7e, 0x93, 0xa1, 0xbf,
  0x6a, 0xfc, 0xf3, 0x3e, 0xf8, 0xa1, 0x78, 0x32, 0x93, 0xab, 0xd8, 0x31,
  0xd9, 0xd2, 0x06, 0xb6, 0x3b, 0x3a, 0x3c, 0x3f, 0x80, 0x50, 0x0e, 0x3f,
  0x86, 0xca, 0x9c, 0x31, 0xbb, 0xea, 0xbc, 0x32, 0xea, 0x1b, 0xf4, 0xb5,
  0xa6, 0x77, 0x02, 0x40, 0x38, 0x40, 0x8e, 0xbf, 0x4f, 0x97, 0x89, 0xb1,
  0x30, 0x21, 0x88, 0xb2, 0x79, 0x60, 0x45, 0x35, 0x88, 0x31, 0xb1, 0xbf,
  0xc0, 0x03, 0xb2, 0x3e, 0x21, 0x3f, 0xd6, 0xb2, 0x27, 0xc3, 0x82, 0x32,
  0x4b, 0x55, 0xd7, 0xb6, 0xac, 0x1b, 0x28, 0xbf, 0x74, 0x39, 0x00, 0x3f,
  0x15, 0x87, 0x57, 0x32, 0xc4, 0x68, 0x9b, 0x31, 0x8f, 0x99, 0xd9, 0x36,
  0xe6, 0x7f, 0xfd, 0x3f, 0xfa, 0xaf, 0x92, 0xbf, 0x23, 0xa2, 0x87, 0x32,
  0xf1, 0xdb, 0xa2, 0x32, 0x54, 0x0d, 0xd4, 0xb6, 0x37, 0xca, 0x55, 0x3f,
  0x54, 0x27, 0x07, 0xbf, 0x3e, 0xf6, 0xb9, 0xb2, 0x04, 0x9b, 0xc7, 0x32,
  0x28, 0x1d, 0x03, 0x37, 0x4e, 0x4c, 0x58, 0xbf, 0x58, 0x12, 0x2a, 0xbe,
  0xda, 0x16, 0x8d, 0xb1, 0x01, 0x18, 0xd5, 0x32, 0xe1, 0xcd, 0xf2, 0xb6,
  0x8e, 0x87, 0x79, 0x38, 0xb4, 0xff, 0xd8, 0xb8, 0xda, 0xd3, 0x81, 0x32,
  0x69, 0x9b, 0x5a, 0xb1, 0xa6, 0x4c, 0x0f, 0x37, 0x8e, 0xc9, 0xe3, 0x38,
  0xa7, 0x8c, 0x0b, 0xba, 0x8c, 0xe0, 0x73, 0xb2, 0x0d, 0xe5, 0xaf, 0x32,
  0x4d, 0xed, 0x39, 0x36, 0x7e, 0xa1, 0x99, 0xba, 0xa2, 0x58, 0xde, 0x39,
  0x60, 0x16, 0x20, 0xb1, 0x4f, 0x4d, 0xc8, 0x32, 0x42, 0xcb, 0xba, 0x35,
  0x45, 0x43, 0xc3, 0xb9, 0xde, 0x83, 0x23, 0xb9, 0xd4, 0xd3, 0xb2, 0x32,
  0x65, 0x35, 0x9c, 0xb2, 0x25, 0xee, 0x62, 0xb7, 0x38, 0x45, 0x18, 0xba,
  0x78, 0xf7, 0x80, 0xb9, 0x06, 0xa6, 0xea, 0x32, 0x31, 0xcc, 0x8d, 0xb1,
  0xdc, 0x32, 0x45, 0x37, 0xc0, 0x89, 0xb5, 0xbf, 0x4e, 0xaa, 0xfd, 0x3f,
  0x1a, 0x24, 0x8a, 0x31, 0x07, 0xe2, 0x38, 0x30, 0xe4, 0xe9, 0x6e, 0xb6,
  0xc4, 0xa6, 0xe4, 0xbf, 0x3a, 0x23, 0x46, 0x3d, 0xc7, 0x56, 0x98, 0x32,
  0x5c, 0x6f, 0xfa, 0x30, 0xc4, 0x1d, 0xe0, 0xb6, 0xf5, 0x5b, 0xf6, 0x3f,
  0xaa, 0xbb, 0xcc, 0xbd, 0x24, 0x57, 0xaf, 0xb2, 0xb8, 0x77, 0x48, 0xb2,
  0x82, 0x33, 0xaa, 0xb6, 0x4e, 0xd4, 0x37, 0xbf, 0xcc, 0xea, 0xdb, 0xbf,
  0xba, 0x50, 0xab, 0xb2, 0x25, 0x7e, 0x93, 0x32, 0xcf, 0x65, 0x01, 0x37,
  0xab, 0x1f, 0xa4, 0xbf, 0xaa, 0xf4, 0x81, 0xbf, 0x6b, 0xb6, 0xcc, 0x32,
  0xc4, 0xb0, 0xec, 0x31, 0x82, 0xf8, 0xff, 0xff, 0x10, 0x00, 0x00, 0x00,
  0x09, 0x00, 0x00, 0x00, 0x1c, 0x00, 0x00, 0x00, 0x2c, 0x00, 0x00, 0x00,
  0x04, 0x00, 0x00, 0x00, 0x05, 0x00, 0x00, 0x00, 0x01, 0x00, 0x00, 0x00,
  0x05, 0x00, 0x00, 0x00, 0x05, 0x00, 0x00, 0x00, 0x0d, 0x00, 0x00, 0x00,
  0x63, 0x6f, 0x6e, 0x76, 0x6f, 0x6c, 0x75, 0x74, 0x69, 0x6f, 0x6e, 0x5f,
  0x31, 0x00, 0x00, 0x00, 0x70, 0xf8, 0xff, 0xff, 0x32, 0xf9, 0xff, 0xff,
  0x04, 0x00, 0x00, 0x00, 0x64, 0x00, 0x00, 0x00, 0x5e, 0x02, 0xb0, 0x37,
  0x72, 0x81, 0x44, 0xb7, 0xef, 0xc9, 0xa8, 0x36, 0x88, 0xb4, 0x28, 0xb7,
  0x4f, 0x50, 0x29, 0x34, 0xf1, 0x6d, 0xcf, 0x3f, 0xd6, 0xea, 0x64, 0xc0,
  0x64, 0x3a, 0xff, 0x3e, 0xf8, 0x0c, 0x34, 0xc0, 0xf2, 0x57, 0xbf, 0x3f,
  0x75, 0x5c, 0x51, 0x40, 0xe9, 0xd6, 0xa9, 0x3e, 0x0b, 0x9e, 0x33, 0xbe,
  0xca, 0xe4, 0xf1, 0x3e, 0x63, 0xc7, 0xac, 0xbd, 0xca, 0x82, 0xb7, 0xb2,
  0x32, 0x17, 0x2e, 0x31, 0x10, 0x4f, 0xcc, 0x32, 0xfc, 0x48, 0x57, 0xb2,
  0x71, 0x95, 0x25, 0x33, 0xee, 0x70, 0xd6, 0xb2, 0x9e, 0xb9, 0x1d, 0xb3,
  0xa5, 0x37, 0x64, 0x33, 0xf2, 0x5c, 0xdf, 0x30, 0xef, 0x85, 0x9a, 0xb2,
  0x32, 0xf9, 0xff, 0xff, 0x10, 0x00, 0x00, 0x00, 0x08, 0x00, 0x00, 0x00,
  0x1c, 0x00, 0x00, 0x00, 0x28, 0x00, 0x00, 0x00, 0x04, 0x00, 0x00, 0x00,
  0x05, 0x00, 0x00, 0x00, 0x01, 0x00, 0x00, 0x00, 0x05, 0x00, 0x00, 0x00,
  0x01, 0x00, 0x00, 0x00, 0x0b, 0x00, 0x00, 0x00, 0x63, 0x6f, 0x6e, 0x76,
  0x6f, 0x6c, 0x75, 0x74, 0x69, 0x6f, 0x6e, 0x00, 0x1c, 0xf9, 0xff, 0xff,
  0xde, 0xf9, 0xff, 0xff, 0x04, 0x00, 0x00, 0x00, 0xc4, 0x04, 0x00, 0x00,
  0xca, 0xdd, 0x9f, 0x35, 0xa0, 0x07, 0x18, 0x36, 0x7b, 0x90, 0xc3, 0x35,
  0x72, 0xe9, 0xa8, 0xb4, 0xc8, 0x84, 0x5b, 0x32, 0xd4, 0x63, 0x90, 0x36,
  0xa0, 0xba, 0xa5, 0xb5, 0x8e, 0xe5, 0x89, 0xb6, 0xee, 0xdd, 0x43, 0x36,
  0xdb, 0x7c, 0x07, 0x36, 0xf0, 0x08, 0x0c, 0xb5, 0x2f, 0x42, 0x07, 0xb5,
  0x4b, 0xc1, 0xd7, 0xb5, 0x13, 0x3a, 0x96, 0x35, 0xcd, 0x8c, 0x72, 0x36,
  0x8a, 0xe3, 0xd2, 0x35, 0xfd, 0x19, 0x30, 0xb5, 0x1b, 0x63, 0x87, 0xb6,
  0xfc, 0x8e, 0x44, 0x36, 0x75, 0x04, 0x83, 0xb6, 0x88, 0xcf, 0x9e, 0x35,
  0xf2, 0xd9, 0x1e, 0xb5, 0x0e, 0xb0, 0x1a, 0xb6, 0xbd, 0xe1, 0x71, 0xb6,
  0xef, 0xe9, 0xd2, 0x34, 0x03, 0xd3, 0xbf, 0xb6, 0x2a, 0x59, 0x13, 0x36,
  0xea, 0x6f, 0xa8, 0xb5, 0x2f, 0x4d, 0x4e, 0xb6, 0x19, 0x38, 0x54, 0xb6,
  0xf0, 0x0e, 0x97, 0xb5, 0x2f, 0x87, 0x0b, 0x35, 0xfd, 0x3a, 0x3e, 0xb6,
  0xe8, 0x3b, 0xed, 0xb5, 0xcd, 0xef, 0xed, 0xb5, 0xcb, 0x4f, 0x99, 0xb6,
  0xff, 0xe7, 0xfa, 0xb4, 0xd1, 0x23, 0x36, 0xb4, 0x5a, 0xff, 0x6f, 0xb6,
  0x3c, 0x9e, 0x3c, 0xb6, 0x86, 0xb3, 0x0a, 0x36, 0xc5, 0x23, 0x77, 0xb6,
  0x7f, 0x01, 0x1d, 0xb5, 0x7e, 0x4c, 0xf0, 0xb5, 0x7c, 0x13, 0x0d, 0xb5,
  0x64, 0x83, 0xee, 0xb5, 0xfb, 0x2e, 0x2c, 0xb4, 0x29, 0x1a, 0xa7, 0x35,
  0xef, 0x11, 0x67, 0xb5, 0x17, 0xf0, 0x89, 0xb4, 0x2a, 0x77, 0x3c, 0x36,
  0x97, 0xb4, 0x89, 0xb6, 0x72, 0x4b, 0x4d, 0x35, 0x0c, 0x6c, 0x4a, 0xb4,
  0xc3, 0xa2, 0x40, 0xb6, 0x02, 0xeb, 0x50, 0xb6, 0x69, 0x05, 0x1b, 0xb6,
  0xc9, 0x62, 0x28, 0x36, 0xaf, 0x6a, 0x8b, 0xb6, 0x3c, 0x03, 0xa5, 0x34,
  0x51, 0x52, 0x82, 0xb3, 0x43, 0xee, 0xc7, 0xbe, 0x2b, 0x69, 0x67, 0x3e,
  0x83, 0x28, 0x27, 0xbd, 0xf1, 0x1f, 0x21, 0xbf, 0x41, 0x71, 0x0c, 0xbf,
  0x83, 0xdc, 0x23, 0xbf, 0x2b, 0xdc, 0xe6, 0xbe, 0x52, 0xad, 0xa9, 0xbe,
  0xa9, 0xbb, 0xf1, 0x3c, 0xfa, 0xe2, 0x93, 0x3e, 0xe3, 0x5f, 0x46, 0xbf,
  0x10, 0xac, 0x19, 0x3e, 0xf8, 0x8c, 0x4e, 0x3d, 0xab, 0xd3, 0xe9, 0xbd,
  0xef, 0x17, 0x8e, 0xbe, 0x40, 0x05, 0xf6, 0xbd, 0xfb, 0xd2, 0x17, 0xbf,
  0xdb, 0xba, 0x9a, 0xbe, 0xae, 0xd7, 0xaf, 0x3d, 0x5e, 0xc7, 0x85, 0xbe,
  0x3c, 0x8a, 0xec, 0xbd, 0x84, 0x2c, 0xa3, 0xbe, 0xd2, 0x2e, 0x81, 0xbe,
  0x0a, 0x90, 0xa6, 0xbd, 0xdd, 0x88, 0x17, 0xbf, 0xf6, 0x4d, 0x92, 0x3e,
  0x56, 0xee, 0x90, 0x3b, 0x9e, 0xdd, 0x2a, 0x3e, 0xb2, 0x3f, 0x58, 0xbe,
  0x70, 0x0b, 0xd8, 0xbe, 0x85, 0x7d, 0xc1, 0xbe, 0x96, 0x05, 0x02, 0x3d,
  0x75, 0x1a, 0xd2, 0xbe, 0x89, 0x02, 0xc0, 0xbd, 0xd9, 0xba, 0xa1, 0xbe,
  0x48, 0xa8, 0xa5, 0xbb, 0xb8, 0xfa, 0x1f, 0xbe, 0xbb, 0x42, 0x2f, 0x3e,
  0x36, 0xa9, 0x5f, 0xbf, 0xc1, 0x08, 0xbc, 0x3e, 0x9b, 0xc0, 0x3e, 0xbc,
  0x37, 0x6a, 0x8f, 0xbe, 0x7b, 0x71, 0x5b, 0xbf, 0xf4, 0xce, 0x06, 0xbf,
  0x82, 0x0e, 0x41, 0xbd, 0xcd, 0x47, 0xd0, 0xbe, 0x11, 0xe6, 0x6e, 0xbe,
  0x02, 0xc1, 0xb5, 0xbe, 0x41, 0x6f, 0xfe, 0xbe, 0x3d, 0x5a, 0x46, 0xbe,
  0x66, 0xf8, 0x53, 0xbe, 0x38, 0x71, 0x41, 0xbe, 0xd3, 0x52, 0x01, 0xbf,
  0xae, 0x0b, 0x4a, 0xbe, 0x72, 0xc9, 0x31, 0xbf, 0x54, 0x42, 0x70, 0xbe,
  0x2f, 0xf8, 0x43, 0x3e, 0xee, 0xca, 0x54, 0x3c, 0x5f, 0x39, 0x30, 0x3e,
  0x1f, 0x32, 0x9f, 0xbe, 0xee, 0x49, 0x12, 0x3f, 0x17, 0xfd, 0x83, 0xbe,
  0xbe, 0x81, 0xf0, 0xbe, 0xb6, 0x60, 0x3f, 0xbe, 0xa5, 0x2e, 0x3c, 0xbf,
  0x70, 0xbb, 0x91, 0xbe, 0xc4, 0xad, 0x30, 0x3f, 0x48, 0xbb, 0xb3, 0x3e,
  0xd8, 0x7d, 0x13, 0x3d, 0xb5, 0x8e, 0xe9, 0x3d, 0x3d, 0x00, 0x95, 0xbe,
  0x21, 0x29, 0xa5, 0xbe, 0x09, 0x4a, 0x57, 0xbf, 0xc1, 0xa2, 0x67, 0xbe,
  0x65, 0x57, 0x5e, 0x3e, 0x99, 0x08, 0xbb, 0xbd, 0xa1, 0x01, 0xe6, 0xbc,
  0x0f, 0x20, 0x39, 0xbe, 0x1f, 0xac, 0xad, 0xbe, 0x04, 0x70, 0x98, 0xbd,
  0x4c, 0xb1, 0x96, 0xbe, 0xdd, 0xf1, 0x00, 0xbf, 0x62, 0x55, 0x9b, 0xbc,
  0x1e, 0x06, 0xa3, 0x3e, 0x96, 0xa3, 0x08, 0xbe, 0xcc, 0x9e, 0x03, 0xbf,
  0x53, 0xe4, 0x85, 0xbe, 0x9d, 0xdf, 0x40, 0xbe, 0x4e, 0xa4, 0x0a, 0xbe,
  0xbd, 0xfb, 0x07, 0xbf, 0x3b, 0x4f, 0x82, 0xbe, 0xa2, 0x36, 0xe2, 0xbe,
  0xed, 0x9f, 0x45, 0xbe, 0x85, 0xba, 0xd5, 0xbd, 0xde, 0x7c, 0x96, 0xbe,
  0x4a, 0x83, 0x07, 0xba, 0xe7, 0xf6, 0xdf, 0xbd, 0x15, 0xcc, 0xb2, 0xbe,
  0x41, 0x2e, 0xb1, 0xbd, 0xaa, 0xe9, 0x1c, 0xbf, 0x82, 0x54, 0xd5, 0xbe,
  0x39, 0xdf, 0x9e, 0x3e, 0x79, 0x4c, 0x94, 0xbe, 0x79, 0x5e, 0x4f, 0xbe,
  0xd4, 0x31, 0x07, 0x3f, 0x14, 0x72, 0x1e, 0x3f, 0xb4, 0xf1, 0x7b, 0x3e,
  0x50, 0x0c, 0xd7, 0xbe, 0x9c, 0xda, 0xd0, 0x3e, 0x5c, 0x3c, 0x31, 0xbf,
  0x77, 0xd0, 0xc6, 0x3e, 0xa1, 0xd0, 0x09, 0xbf, 0x2c, 0x92, 0xe6, 0xbe,
  0x7d, 0x37, 0xab, 0xbe, 0xe8, 0xe1, 0xb1, 0xbb, 0xd8, 0x29, 0x19, 0x3e,
  0x35, 0x02, 0xdd, 0x3d, 0x3e, 0x85, 0x06, 0x3f, 0xb2, 0xce, 0x0c, 0xbf,
  0x73, 0xab, 0x2b, 0xbf, 0x3a, 0x85, 0xcd, 0xbc, 0x78, 0x8e, 0xcf, 0x3e,
  0x35, 0x8a, 0xc9, 0xb9, 0xf0, 0xbc, 0x4f, 0xb7, 0x5e, 0xa1, 0x08, 0xb8,
  0x9a, 0x92, 0x09, 0xb7, 0x4d, 0x33, 0xbe, 0xb9, 0x43, 0x10, 0xbf, 0x38,
  0x4c, 0xcc, 0x65, 0xb9, 0x95, 0x91, 0x63, 0x39, 0x49, 0xf5, 0x6f, 0xb9,
  0xfc, 0x80, 0xbe, 0x38, 0x24, 0xa2, 0x11, 0xb9, 0x56, 0x2d, 0xd4, 0x38,
  0x7d, 0x2c, 0x8d, 0x37, 0xde, 0x5a, 0x48, 0xb8, 0x16, 0x61, 0x8d, 0xb9,
  0x89, 0xd2, 0x2f, 0x39, 0x72, 0x9b, 0x8d, 0xb9, 0x4e, 0x40, 0x2d, 0x39,
  0x95, 0x6d, 0x91, 0xb8, 0x3a, 0xc8, 0x15, 0x38, 0xdb, 0x1a, 0x64, 0xb9,
  0x9b, 0xca, 0x20, 0x39, 0x96, 0x61, 0xbe, 0xb8, 0x20, 0x50, 0xb6, 0x38,
  0x8f, 0x90, 0x3f, 0x38, 0xdd, 0xad, 0x07, 0x39, 0xfa, 0x3d, 0x4c, 0xb9,
  0xbd, 0xa3, 0x47, 0xb7, 0x44, 0x4e, 0x03, 0xb9, 0x9c, 0x83, 0xec, 0x38,
  0x78, 0x47, 0x1a, 0xb9, 0x1a, 0x36, 0x48, 0x39, 0x75, 0x96, 0x8b, 0xb9,
  0xbe, 0xd2, 0xf6, 0x38, 0xde, 0xbd, 0x29, 0xb7, 0xac, 0xa1, 0x37, 0x39,
  0x24, 0x39, 0xee, 0x38, 0x11, 0xa9, 0x87, 0x38, 0xb2, 0x69, 0x10, 0xb9,
  0x3b, 0xf0, 0xf8, 0x38, 0x74, 0x28, 0x5a, 0xb9, 0xa5, 0x6a, 0xa9, 0x39,
  0x84, 0xc9, 0xfe, 0xb8, 0xab, 0x58, 0xbe, 0x38, 0x13, 0xb0, 0x04, 0xb9,
  0x1b, 0x28, 0x35, 0x38, 0xc9, 0x8b, 0x32, 0xb9, 0x58, 0x74, 0x90, 0x38,
  0xad, 0x05, 0x19, 0x35, 0xbf, 0xb9, 0xb3, 0x38, 0xe9, 0x3c, 0xfd, 0xb8,
  0x32, 0x38, 0x4c, 0x39, 0xc5, 0xd5, 0x8f, 0xb9, 0xda, 0x51, 0x7c, 0x38,
  0x90, 0xee, 0x61, 0xb9, 0x27, 0x31, 0xd1, 0x38, 0xee, 0xba, 0xa3, 0xb8,
  0x49, 0xf2, 0x72, 0x38, 0xcd, 0x44, 0x20, 0xb9, 0x05, 0x51, 0x7e, 0xb8,
  0x8d, 0xc5, 0xa8, 0xb9, 0x09, 0xcb, 0x9e, 0x3e, 0xea, 0x5e, 0xf5, 0xbd,
  0xca, 0x7b, 0x5b, 0xbd, 0x51, 0x67, 0xd8, 0x3c, 0xe6, 0x05, 0x4e, 0xbd,
  0xdd, 0xc9, 0xf5, 0xbe, 0x92, 0x32, 0x7e, 0x3c, 0x3b, 0x2d, 0x9c, 0xbe,
  0x49, 0x5c, 0x5f, 0x3e, 0xe6, 0x3f, 0x17, 0xbe, 0x6b, 0xff, 0x98, 0x3e,
  0xff, 0x00, 0xce, 0xbe, 0xb3, 0x28, 0xdc, 0x3e, 0x34, 0xf1, 0x58, 0xbf,
  0x93, 0xf6, 0xca, 0x3e, 0xe3, 0x77, 0x28, 0xbf, 0x35, 0xe3, 0x99, 0x3e,
  0x7f, 0xe4, 0xd6, 0xbe, 0xe4, 0xd4, 0x7f, 0x3e, 0xf2, 0x7d, 0xd1, 0xbe,
  0x4d, 0xf6, 0x09, 0x3f, 0xcd, 0x9e, 0x22, 0xbf, 0x48, 0x13, 0xe9, 0x3e,
  0xf7, 0x90, 0x2a, 0xbf, 0x06, 0x0c, 0xda, 0x3e, 0xb3, 0x89, 0x47, 0xbf,
  0xbc, 0xbd, 0x75, 0x3e, 0x5a, 0xaa, 0x35, 0xbf, 0x24, 0xce, 0x1c, 0x3e,
  0x2c, 0xa3, 0xe4, 0xbe, 0x34, 0x3c, 0x1e, 0x3e, 0x4c, 0xf4, 0x4c, 0xbf,
  0x40, 0xce, 0x9a, 0x3e, 0xff, 0x38, 0x86, 0xbf, 0x2b, 0x3c, 0xa8, 0x3e,
  0x4f, 0x4e, 0x3b, 0xbf, 0xee, 0x9e, 0x18, 0x3e, 0x33, 0xb1, 0x77, 0xbf,
  0xd2, 0xdb, 0x63, 0xbd, 0xa1, 0x42, 0x02, 0xbf, 0xbb, 0x90, 0x10, 0xbe,
  0xcd, 0x8a, 0x1b, 0xbf, 0xe3, 0xf5, 0x77, 0x3e, 0x70, 0x61, 0x1b, 0xbf,
  0x23, 0x26, 0xce, 0x3d, 0xe8, 0xda, 0xf6, 0xbe, 0x08, 0x7b, 0xbc, 0x3e,
  0x23, 0xd4, 0xaa, 0xbe, 0x57, 0xa4, 0x88, 0x3d, 0x87, 0x0d, 0xcb, 0xbe,
  0xf2, 0xf5, 0xe4, 0x3e, 0xde, 0x71, 0x97, 0xbe, 0x54, 0xee, 0xbb, 0x3d,
  0x01, 0xc5, 0xaa, 0xbe, 0x26, 0x12, 0x18, 0x3e, 0xcb, 0x6a, 0x3b, 0xbf,
  0xa6, 0x0a, 0x12, 0x3e, 0x8a, 0x09, 0x48, 0xbf, 0x2c, 0xfd, 0xa3, 0x3e,
  0x08, 0x86, 0x1f, 0xbf, 0xfa, 0xfc, 0x0d, 0x3d, 0x3e, 0xfe, 0xff, 0xff,
  0x10, 0x00, 0x00, 0x00, 0x07, 0x00, 0x00, 0x00, 0x14, 0x00, 0x00, 0x00,
  0x1c, 0x00, 0x00, 0x00, 0x02, 0x00, 0x00, 0x00, 0x01, 0x00, 0x00, 0x00,
  0x31, 0x01, 0x00, 0x00, 0x06, 0x00, 0x00, 0x00, 0x4d, 0x61, 0x74, 0x4d,
  0x75, 0x6c, 0x00, 0x00, 0x1c, 0xfe, 0xff, 0xff, 0xde, 0xfe, 0xff, 0xff,
  0x04, 0x00, 0x00, 0x00, 0x04, 0x00, 0x00, 0x00, 0x51, 0x6e, 0x3f, 0x40,
  0x7e, 0xfe, 0xff, 0xff, 0x10, 0x00, 0x00, 0x00, 0x06, 0x00, 0x00, 0x00,
  0x10, 0x00, 0x00, 0x00, 0x18, 0x00, 0x00, 0x00, 0x01, 0x00, 0x00, 0x00,
  0x01, 0x00, 0x00, 0x00, 0x07, 0x00, 0x00, 0x00, 0x43, 0x6f, 0x6e, 0x73,
  0x74, 0x5f, 0x35, 0x00, 0x58, 0xfe, 0xff, 0xff, 0x1a, 0xff, 0xff, 0xff,
  0x04, 0x00, 0x00, 0x00, 0x14, 0x00, 0x00, 0x00, 0x8a, 0x5e, 0x07, 0xb7,
  0xa4, 0xdb, 0x7e, 0xbf, 0x7c, 0x8b, 0xb5, 0xbf, 0x5c, 0xc4, 0x25, 0xba,
  0x78, 0x1b, 0xff, 0xbe, 0xca, 0xfe, 0xff, 0xff, 0x10, 0x00, 0x00, 0x00,
  0x05, 0x00, 0x00, 0x00, 0x10, 0x00, 0x00, 0x00, 0x18, 0x00, 0x00, 0x00,
  0x01, 0x00, 0x00, 0x00, 0x05, 0x00, 0x00, 0x00, 0x07, 0x00, 0x00, 0x00,
  0x43, 0x6f, 0x6e, 0x73, 0x74, 0x5f, 0x33, 0x00, 0xa4, 0xfe, 0xff, 0xff,
  0x66, 0xff, 0xff, 0xff, 0x04, 0x00, 0x00, 0x00, 0x14, 0x00, 0x00, 0x00,
  0x99, 0xb1, 0x94, 0xb7, 0xff, 0x39, 0xbe, 0x3f, 0xca, 0xfd, 0xcf, 0xbf,
  0xfe, 0x5e, 0x4f, 0xb3, 0x78, 0xa4, 0x0c, 0xb3, 0x16, 0xff, 0xff, 0xff,
  0x10, 0x00, 0x00, 0x00, 0x04, 0x00, 0x00, 0x00, 0x10, 0x00, 0x00, 0x00,
  0x18, 0x00, 0x00, 0x00, 0x01, 0x00, 0x00, 0x00, 0x05, 0x00, 0x00, 0x00,
  0x07, 0x00, 0x00, 0x00, 0x43, 0x6f, 0x6e, 0x73, 0x74, 0x5f, 0x31, 0x00,
  0xf0, 0xfe, 0xff, 0xff, 0xb2, 0xff, 0xff, 0xff, 0x04, 0x00, 0x00, 0x00,
  0x08, 0x00, 0x00, 0x00, 0xff, 0xff, 0xff, 0xff, 0x31, 0x01, 0x00, 0x00,
  0xa6, 0xff, 0xff, 0xff, 0x00, 0x00, 0x00, 0x02, 0x10, 0x00, 0x00, 0x00,
  0x03, 0x00, 0x00, 0x00, 0x10, 0x00, 0x00, 0x00, 0x20, 0x00, 0x00, 0x00,
  0x01, 0x00, 0x00, 0x00, 0x02, 0x00, 0x00, 0x00, 0x0d, 0x00, 0x00, 0x00,
  0x66, 0x6c, 0x61, 0x74, 0x74, 0x65, 0x6e, 0x2f, 0x43, 0x6f, 0x6e, 0x73,
  0x74, 0x00, 0x00, 0x00, 0x94, 0xff, 0xff, 0xff, 0x00, 0x00, 0x06, 0x00,
  0x08, 0x00, 0x04, 0x00, 0x06, 0x00, 0x00, 0x00, 0x04, 0x00, 0x00, 0x00,
  0x0c, 0x00, 0x00, 0x00, 0x00, 0x00, 0x00, 0x00, 0x02, 0x00, 0x00, 0x00,
  0x01, 0x00, 0x00, 0x00, 0x00, 0x00, 0x0e, 0x00, 0x18, 0x00, 0x08, 0x00,
  0x07, 0x00, 0x0c, 0x00, 0x10, 0x00, 0x14, 0x00, 0x0e, 0x00, 0x00, 0x00,
  0x00, 0x00, 0x00, 0x02, 0x10, 0x00, 0x00, 0x00, 0x02, 0x00, 0x00, 0x00,
  0x10, 0x00, 0x00, 0x00, 0x28, 0x00, 0x00, 0x00, 0x01, 0x00, 0x00, 0x00,
  0x03, 0x00, 0x00, 0x00, 0x10, 0x00, 0x00, 0x00, 0x74, 0x72, 0x61, 0x6e,
  0x73, 0x70, 0x6f, 0x73, 0x65, 0x5f, 0x31, 0x2f, 0x70, 0x65, 0x72, 0x6d,
  0x00, 0x00, 0x00, 0x00, 0x04, 0x00, 0x06, 0x00, 0x04, 0x00, 0x00, 0x00,
  0x00, 0x00, 0x0e, 0x00, 0x14, 0x00, 0x04, 0x00, 0x00, 0x00, 0x08, 0x00,
  0x0c, 0x00, 0x10, 0x00, 0x0e, 0x00, 0x00, 0x00, 0x10, 0x00, 0x00, 0x00,
  0x01, 0x00, 0x00, 0x00, 0x14, 0x00, 0x00, 0x00, 0x2c, 0x00, 0x00, 0x00,
  0x02, 0x00, 0x00, 0x00, 0x01, 0x00, 0x00, 0x00, 0x45, 0x00, 0x00, 0x00,
  0x17, 0x00, 0x00, 0x00, 0x73, 0x65, 0x72, 0x76, 0x69, 0x6e, 0x67, 0x5f,
  0x64, 0x65, 0x66, 0x61, 0x75, 0x6c, 0x74, 0x5f, 0x69, 0x6e, 0x70, 0x75,
  0x74, 0x3a, 0x30, 0x00, 0xfc, 0xff, 0xff, 0xff, 0x04, 0x00, 0x04, 0x00,
  0x04, 0x00, 0x00, 0x00
};
unsigned int g_model_len = 4432;
