unsigned char g_model[] = {
  0x1c, 0x00, 0x00, 0x00, 0x54, 0x46, 0x4c, 0x33, 0x14, 0x00, 0x20, 0x00,
  0x04, 0x00, 0x08, 0x00, 0x0c, 0x00, 0x10, 0x00, 0x14, 0x00, 0x00, 0x00,
  0x18, 0x00, 0x1c, 0x00, 0x14, 0x00, 0x00, 0x00, 0x03, 0x00, 0x00, 0x00,
  0x18, 0x00, 0x00, 0x00, 0x2c, 0x00, 0x00, 0x00, 0x54, 0x01, 0x00, 0x00,
  0x2c, 0x00, 0x00, 0x00, 0xfc, 0x00, 0x00, 0x00, 0x7c, 0x00, 0x00, 0x00,
  0x05, 0x00, 0x00, 0x00, 0x30, 0x06, 0x00, 0x00, 0x64, 0x05, 0x00, 0x00,
  0x7c, 0x03, 0x00, 0x00, 0xa0, 0x02, 0x00, 0x00, 0x1c, 0x02, 0x00, 0x00,
  0x01, 0x00, 0x00, 0x00, 0x4c, 0x01, 0x00, 0x00, 0x15, 0x00, 0x00, 0x00,
  0xec, 0x10, 0x00, 0x00, 0xe8, 0x10, 0x00, 0x00, 0x28, 0x10, 0x00, 0x00,
  0xd0, 0x0f, 0x00, 0x00, 0x80, 0x0f, 0x00, 0x00, 0x30, 0x0f, 0x00, 0x00,
  0xf0, 0x0e, 0x00, 0x00, 0xec, 0x09, 0x00, 0x00, 0x3c, 0x09, 0x00, 0x00,
  0xf8, 0x06, 0x00, 0x00, 0x98, 0x06, 0x00, 0x00, 0x3c, 0x06, 0x00, 0x00,
  0xbc, 0x10, 0x00, 0x00, 0xb8, 0x10, 0x00, 0x00, 0xb4, 0x10, 0x00, 0x00,
  0xb0, 0x10, 0x00, 0x00, 0xac, 0x10, 0x00, 0x00, 0xa8, 0x10, 0x00, 0x00,
  0xa4, 0x10, 0x00, 0x00, 0xa0, 0x10, 0x00, 0x00, 0xb4, 0x00, 0x00, 0x00,
  0x01, 0x00, 0x00, 0x00, 0x10, 0x00, 0x00, 0x00, 0x00, 0x00, 0x0a, 0x00,
  0x10, 0x00, 0x0c, 0x00, 0x08, 0x00, 0x04, 0x00, 0x0a, 0x00, 0x00, 0x00,
  0x0c, 0x00, 0x00, 0x00, 0x1c, 0x00, 0x00, 0x00, 0x20, 0x00, 0x00, 0x00,
  0x0f, 0x00, 0x00, 0x00, 0x73, 0x65, 0x72, 0x76, 0x69, 0x6e, 0x67, 0x5f,
  0x64, 0x65, 0x66, 0x61, 0x75, 0x6c, 0x74, 0x00, 0x01, 0x00, 0x00, 0x00,
  0x14, 0x00, 0x00, 0x00, 0x01, 0x00, 0x00, 0x00, 0x24, 0x00, 0x00, 0x00,
  0x08, 0x00, 0x0c, 0x00, 0x08, 0x00, 0x04, 0x00, 0x08, 0x00, 0x00, 0x00,
  0x12, 0x00, 0x00, 0x00, 0x04, 0x00, 0x00, 0x00, 0x06, 0x00, 0x00, 0x00,
  0x6f, 0x75, 0x74, 0x70, 0x75, 0x74, 0x00, 0x00, 0x92, 0xf0, 0xff, 0xff,
  0x04, 0x00, 0x00, 0x00, 0x05, 0x00, 0x00, 0x00, 0x69, 0x6e, 0x70, 0x75,
  0x74, 0x00, 0x00, 0x00, 0x01, 0x00, 0x00, 0x00, 0x0c, 0x00, 0x00, 0x00,
  0x08, 0x00, 0x0c, 0x00, 0x04, 0x00, 0x08, 0x00, 0x08, 0x00, 0x00, 0x00,
  0x08, 0x00, 0x00, 0x00, 0x14, 0x00, 0x00, 0x00, 0x13, 0x00, 0x00, 0x00,
  0x6d, 0x69, 0x6e, 0x5f, 0x72, 0x75, 0x6e, 0x74, 0x69, 0x6d, 0x65, 0x5f,
  0x76, 0x65, 0x72, 0x73, 0x69, 0x6f, 0x6e, 0x00, 0xda, 0xf0, 0xff, 0xff,
  0x04, 0x00, 0x00, 0x00, 0x10, 0x00, 0x00, 0x00, 0x31, 0x2e, 0x31, 0x34,
  0x2e, 0x30, 0x00, 0x00, 0x00, 0x00, 0x00, 0x00, 0x00, 0x00, 0x00, 0x00,
  0x0f, 0x00, 0x00, 0x00, 0x4d, 0x4c, 0x49, 0x52, 0x20, 0x43, 0x6f, 0x6e,
  0x76, 0x65, 0x72, 0x74, 0x65, 0x64, 0x2e, 0x00, 0x00, 0x00, 0x0e, 0x00,
  0x18, 0x00, 0x04, 0x00, 0x08, 0x00, 0x0c, 0x00, 0x10, 0x00, 0x14, 0x00,
  0x0e, 0x00, 0x00, 0x00, 0x14, 0x00, 0x00, 0x00, 0x60, 0x00, 0x00, 0x00,
  0x64, 0x00, 0x00, 0x00, 0x68, 0x00, 0x00, 0x00, 0x88, 0x00, 0x00, 0x00,
  0x13, 0x00, 0x00, 0x00, 0x48, 0x0f, 0x00, 0x00, 0xf4, 0x0e, 0x00, 0x00,
  0x88, 0x0e, 0x00, 0x00, 0x44, 0x0e, 0x00, 0x00, 0xf4, 0x0d, 0x00, 0x00,
  0xa4, 0x0d, 0x00, 0x00, 0x60, 0x0d, 0x00, 0x00, 0x50, 0x08, 0x00, 0x00,
  0x9c, 0x07, 0x00, 0x00, 0x58, 0x05, 0x00, 0x00, 0xf8, 0x04, 0x00, 0x00,
  0x94, 0x04, 0x00, 0x00, 0xc8, 0x03, 0x00, 0x00, 0xe0, 0x02, 0x00, 0x00,
  0x34, 0x02, 0x00, 0x00, 0xd8, 0x01, 0x00, 0x00, 0x54, 0x01, 0x00, 0x00,
  0xf8, 0x00, 0x00, 0x00, 0x74, 0x00, 0x00, 0x00, 0x01, 0x00, 0x00, 0x00,
  0x00, 0x00, 0x00, 0x00, 0x01, 0x00, 0x00, 0x00, 0x12, 0x00, 0x00, 0x00,
  0x08, 0x00, 0x00, 0x00, 0x24, 0x04, 0x00, 0x00, 0x38, 0x03, 0x00, 0x00,
  0x6c, 0x02, 0x00, 0x00, 0xe0, 0x01, 0x00, 0x00, 0x70, 0x01, 0x00, 0x00,
  0x00, 0x01, 0x00, 0x00, 0x80, 0x00, 0x00, 0x00, 0x10, 0x00, 0x00, 0x00,
  0x04, 0x00, 0x00, 0x00, 0x6d, 0x61, 0x69, 0x6e, 0x00, 0x00, 0x00, 0x00,
  0xb6, 0xfe, 0xff, 0xff, 0x04, 0x00, 0x00, 0x00, 0x10, 0x00, 0x00, 0x00,
  0x04, 0x00, 0x00, 0x00, 0x01, 0x00, 0x00, 0x00, 0x12, 0x00, 0x00, 0x00,
  0x01, 0x00, 0x00, 0x00, 0x11, 0x00, 0x00, 0x00, 0x08, 0xfc, 0xff, 0xff,
  0x0e, 0x00, 0x00, 0x00, 0x00, 0x00, 0x00, 0x0e, 0x01, 0x00, 0x00, 0x00,
  0x82, 0xf1, 0xff, 0xff, 0x10, 0x00, 0x00, 0x00, 0x13, 0x00, 0x00, 0x00,
  0x14, 0x00, 0x00, 0x00, 0x28, 0x00, 0x00, 0x00, 0x02, 0x00, 0x00, 0x00,
  0x01, 0x00, 0x00, 0x00, 0x01, 0x00, 0x00, 0x00, 0x11, 0x00, 0x00, 0x00,
  0x50, 0x61, 0x72, 0x74, 0x69, 0x74, 0x69, 0x6f, 0x6e, 0x65, 0x64, 0x43,
  0x61, 0x6c, 0x6c, 0x3a, 0x30, 0x00, 0x00, 0x00, 0x6c, 0xf1, 0xff, 0xff,
  0x6a, 0xfd, 0xff, 0xff, 0x00, 0x00, 0x00, 0x08, 0x03, 0x00, 0x00, 0x00,
  0x18, 0x00, 0x00, 0x00, 0x0c, 0x00, 0x00, 0x00, 0x04, 0x00, 0x00, 0x00,
  0x88, 0xf1, 0xff, 0xff, 0x01, 0x00, 0x00, 0x00, 0x11, 0x00, 0x00, 0x00,
  0x03, 0x00, 0x00, 0x00, 0x10, 0x00, 0x00, 0x00, 0x06, 0x00, 0x00, 0x00,
  0x05, 0x00, 0x00, 0x00, 0x88, 0xfc, 0xff, 0xff, 0x09, 0x00, 0x00, 0x00,
  0x00, 0x00, 0x00, 0x09, 0x01, 0x00, 0x00, 0x00, 0x02, 0xf2, 0xff, 0xff,
  0x10, 0x00, 0x00, 0x00, 0x12, 0x00, 0x00, 0x00, 0x14, 0x00, 0x00, 0x00,
  0x24, 0x00, 0x00, 0x00, 0x02, 0x00, 0x00, 0x00, 0x01, 0x00, 0x00, 0x00,
  0x01, 0x00, 0x00, 0x00, 0x0c, 0x00, 0x00, 0x00, 0x4d, 0x61, 0x74, 0x4d,
  0x75, 0x6c, 0x3b, 0x61, 0x64, 0x64, 0x5f, 0x32, 0x00, 0x00, 0x00, 0x00,
  0xe8, 0xf1, 0xff, 0xff, 0xfa, 0xfc, 0xff, 0xff, 0x10, 0x00, 0x00, 0x00,
  0x04, 0x00, 0x00, 0x00, 0x01, 0x00, 0x00, 0x00, 0x10, 0x00, 0x00, 0x00,
  0x02, 0x00, 0x00, 0x00, 0x0f, 0x00, 0x00, 0x00, 0x02, 0x00, 0x00, 0x00,
  0x5a, 0xf2, 0xff, 0xff, 0x10, 0x00, 0x00, 0x00, 0x11, 0x00, 0x00, 0x00,
  0x14, 0x00, 0x00, 0x00, 0x2c, 0x00, 0x00, 0x00, 0x02, 0x00, 0x00, 0x00,
  0x01, 0x00, 0x00, 0x00, 0x31, 0x01, 0x00, 0x00, 0x17, 0x00, 0x00, 0x00,
  0x66, 0x6c, 0x61, 0x74, 0x74, 0x65, 0x6e, 0x2f, 0x52, 0x65, 0x73, 0x68,
  0x61, 0x70, 0x65, 0x3b, 0x52, 0x65, 0x73, 0x68, 0x61, 0x70, 0x65, 0x00,
  0xa0, 0xf2, 0xff, 0xff, 0x00, 0x00, 0x0a, 0x00, 0x10, 0x00, 0x04, 0x00,
  0x08, 0x00, 0x0c, 0x00, 0x0a, 0x00, 0x00, 0x00, 0x02, 0x00, 0x00, 0x00,
  0x10, 0x00, 0x00, 0x00, 0x04, 0x00, 0x00, 0x00, 0x01, 0x00, 0x00, 0x00,
  0x0f, 0x00, 0x00, 0x00, 0x02, 0x00, 0x00, 0x00, 0x0e, 0x00, 0x00, 0x00,
  0x01, 0x00, 0x00, 0x00, 0x60, 0xfd, 0xff, 0xff, 0x27, 0x00, 0x00, 0x00,
  0x00, 0x00, 0x00, 0x27, 0x01, 0x00, 0x00, 0x00, 0xda, 0xf2, 0xff, 0xff,
  0x10, 0x00, 0x00, 0x00, 0x10, 0x00, 0x00, 0x00, 0x18, 0x00, 0x00, 0x00,
  0x24, 0x00, 0x00, 0x00, 0x03, 0x00, 0x00, 0x00, 0x01, 0x00, 0x00, 0x00,
  0x05, 0x00, 0x00, 0x00, 0x3d, 0x00, 0x00, 0x00, 0x0b, 0x00, 0x00, 0x00,
  0x74, 0x72, 0x61, 0x6e, 0x73, 0x70, 0x6f, 0x73, 0x65, 0x5f, 0x35, 0x00,
  0xc0, 0xf2, 0xff, 0xff, 0xd2, 0xfd, 0xff, 0xff, 0x10, 0x00, 0x00, 0x00,
  0x04, 0x00, 0x00, 0x00, 0x01, 0x00, 0x00, 0x00, 0x0e, 0x00, 0x00, 0x00,
  0x02, 0x00, 0x00, 0x00, 0x0d, 0x00, 0x00, 0x00, 0x0a, 0x00, 0x00, 0x00,
  0x32, 0xf3, 0xff, 0xff, 0x10, 0x00, 0x00, 0x00, 0x0f, 0x00, 0x00, 0x00,
  0x18, 0x00, 0x00, 0x00, 0x54, 0x00, 0x00, 0x00, 0x03, 0x00, 0x00, 0x00,
  0x01, 0x00, 0x00, 0x00, 0x3d, 0x00, 0x00, 0x00, 0x05, 0x00, 0x00, 0x00,
  0x39, 0x00, 0x00, 0x00, 0x6f, 0x6e, 0x6e, 0x78, 0x5f, 0x74, 0x66, 0x5f,
  0x70, 0x72, 0x65, 0x66, 0x69, 0x78, 0x5f, 0x52, 0x65, 0x6c, 0x75, 0x5f,
  0x34, 0x3b, 0x41, 0x64, 0x64, 0x5f, 0x31, 0x3b, 0x63, 0x6f, 0x6e, 0x76,
  0x6f, 0x6c, 0x75, 0x74, 0x69, 0x6f, 0x6e, 0x5f, 0x31, 0x2f, 0x53, 0x71,
  0x75, 0x65, 0x65, 0x7a, 0x65, 0x3b, 0x43, 0x6f, 0x6e, 0x73, 0x74, 0x5f,
  0x33, 0x00, 0x00, 0x00, 0x48, 0xf3, 0xff, 0xff, 0x46, 0xff, 0xff, 0xff,
  0x00, 0x00, 0x00, 0x01, 0x01, 0x00, 0x00, 0x00, 0x24, 0x00, 0x00, 0x00,
  0x18, 0x00, 0x00, 0x00, 0x04, 0x00, 0x00, 0x00, 0x38, 0xff, 0xff, 0xff,
  0x01, 0x00, 0x00, 0x00, 0x01, 0x00, 0x00, 0x00, 0x00, 0x00, 0x01, 0x01,
  0x01, 0x00, 0x00, 0x00, 0x0d, 0x00, 0x00, 0x00, 0x03, 0x00, 0x00, 0x00,
  0x0c, 0x00, 0x00, 0x00, 0x08, 0x00, 0x00, 0x00, 0x04, 0x00, 0x00, 0x00,
  0xda, 0xf3, 0xff, 0xff, 0x10, 0x00, 0x00, 0x00, 0x0e, 0x00, 0x00, 0x00,
  0x1c, 0x00, 0x00, 0x00, 0x64, 0x00, 0x00, 0x00, 0x04, 0x00, 0x00, 0x00,
  0x01, 0x00, 0x00, 0x00, 0x01, 0x00, 0x00, 0x00, 0x3d, 0x00, 0x00, 0x00,
  0x05, 0x00, 0x00, 0x00, 0x47, 0x00, 0x00, 0x00, 0x6f, 0x6e, 0x6e, 0x78,
  0x5f, 0x74, 0x66, 0x5f, 0x70, 0x72, 0x65, 0x66, 0x69, 0x78, 0x5f, 0x52,
  0x65, 0x6c, 0x75, 0x5f, 0x34, 0x3b, 0x41, 0x64, 0x64, 0x5f, 0x31, 0x3b,
  0x63, 0x6f, 0x6e, 0x76, 0x6f, 0x6c, 0x75, 0x74, 0x69, 0x6f, 0x6e, 0x5f,
  0x31, 0x2f, 0x53, 0x71, 0x75, 0x65, 0x65, 0x7a, 0x65, 0x3b, 0x43, 0x6f,
  0x6e, 0x73, 0x74, 0x5f, 0x33, 0x3b, 0x63, 0x6f, 0x6e, 0x76, 0x6f, 0x6c,
  0x75, 0x74, 0x69, 0x6f, 0x6e, 0x5f, 0x31, 0x00, 0x58, 0xf4, 0xff, 0xff,
  0x00, 0x00, 0x0e, 0x00, 0x18, 0x00, 0x08, 0x00, 0x0c, 0x00, 0x10, 0x00,
  0x07, 0x00, 0x14, 0x00, 0x0e, 0x00, 0x00, 0x00, 0x00, 0x00, 0x00, 0x01,
  0x01, 0x00, 0x00, 0x00, 0x30, 0x00, 0x00, 0x00, 0x24, 0x00, 0x00, 0x00,
  0x10, 0x00, 0x00, 0x00, 0x0c, 0x00, 0x10, 0x00, 0x0e, 0x00, 0x04, 0x00,
  0x08, 0x00, 0x0f, 0x00, 0x0c, 0x00, 0x00, 0x00, 0x01, 0x00, 0x00, 0x00,
  0x01, 0x00, 0x00, 0x00, 0x00, 0x00, 0x01, 0x01, 0x01, 0x00, 0x00, 0x00,
  0x0c, 0x00, 0x00, 0x00, 0x03, 0x00, 0x00, 0x00, 0x0b, 0x00, 0x00, 0x00,
  0x07, 0x00, 0x00, 0x00, 0x03, 0x00, 0x00, 0x00, 0x44, 0xff, 0xff, 0xff,
  0x03, 0x00, 0x00, 0x00, 0x00, 0x00, 0x00, 0x03, 0x01, 0x00, 0x00, 0x00,
  0xbe, 0xf4, 0xff, 0xff, 0x10, 0x00, 0x00, 0x00, 0x0d, 0x00, 0x00, 0x00,
  0x1c, 0x00, 0x00, 0x00, 0x6c, 0x00, 0x00, 0x00, 0x04, 0x00, 0x00, 0x00,
  0x01, 0x00, 0x00, 0x00, 0x01, 0x00, 0x00, 0x00, 0x41, 0x00, 0x00, 0x00,
  0x05, 0x00, 0x00, 0x00, 0x4f, 0x00, 0x00, 0x00, 0x6f, 0x6e, 0x6e, 0x78,
  0x5f, 0x74, 0x66, 0x5f, 0x70, 0x72, 0x65, 0x66, 0x69, 0x78, 0x5f, 0x52,
  0x65, 0x6c, 0x75, 0x5f, 0x32, 0x3b, 0x41, 0x64, 0x64, 0x3b, 0x63, 0x6f,
  0x6e, 0x76, 0x6f, 0x6c, 0x75, 0x74, 0x69, 0x6f, 0x6e, 0x2f, 0x53, 0x71,
  0x75, 0x65, 0x65, 0x7a, 0x65, 0x3b, 0x43, 0x6f, 0x6e, 0x73, 0x74, 0x5f,
  0x31, 0x3b, 0x63, 0x6f, 0x6e, 0x76, 0x6f, 0x6c, 0x75, 0x74, 0x69, 0x6f,
  0x6e, 0x5f, 0x31, 0x3b, 0x63, 0x6f, 0x6e, 0x76, 0x6f, 0x6c, 0x75, 0x74,
  0x69, 0x6f, 0x6e, 0x00, 0x44, 0xf5, 0xff, 0xff, 0x00, 0x00, 0x0a, 0x00,
  0x0c, 0x00, 0x00, 0x00, 0x04, 0x00, 0x08, 0x00, 0x0a, 0x00, 0x00, 0x00,
  0x10, 0x00, 0x00, 0x00, 0x04, 0x00, 0x00, 0x00, 0x01, 0x00, 0x00, 0x00,
  0x0b, 0x00, 0x00, 0x00, 0x02, 0x00, 0x00, 0x00, 0x00, 0x00, 0x00, 0x00,
  0x09, 0x00, 0x00, 0x00, 0x0c, 0x00, 0x10, 0x00, 0x0b, 0x00, 0x00, 0x00,
  0x0c, 0x00, 0x04, 0x00, 0x0c, 0x00, 0x00, 0x00, 0x16, 0x00, 0x00, 0x00,
  0x00, 0x00, 0x00, 0x16, 0x01, 0x00, 0x00, 0x00, 0x86, 0xf5, 0xff, 0xff,
  0x10, 0x00, 0x00, 0x00, 0x0c, 0x00, 0x00, 0x00, 0x1c, 0x00, 0x00, 0x00,
  0x34, 0x00, 0x00, 0x00, 0x04, 0x00, 0x00, 0x00, 0x01, 0x00, 0x00, 0x00,
  0x01, 0x00, 0x00, 0x00, 0x45, 0x00, 0x00, 0x00, 0x01, 0x00, 0x00, 0x00,
  0x17, 0x00, 0x00, 0x00, 0x63, 0x6f, 0x6e, 0x76, 0x6f, 0x6c, 0x75, 0x74,
  0x69, 0x6f, 0x6e, 0x2f, 0x45, 0x78, 0x70, 0x61, 0x6e, 0x64, 0x44, 0x69,
  0x6d, 0x73, 0x31, 0x00, 0x7c, 0xf5, 0xff, 0xff, 0x3e, 0xf6, 0xff, 0xff,
  0x04, 0x00, 0x00, 0x00, 0x0c, 0x00, 0x00, 0x00, 0x01, 0x00, 0x00, 0x00,
  0x3d, 0x00, 0x00, 0x00, 0x05, 0x00, 0x00, 0x00, 0x36, 0xf6, 0xff, 0xff,
  0x00, 0x00, 0x00, 0x02, 0x10, 0x00, 0x00, 0x00, 0x0b, 0x00, 0x00, 0x00,
  0x10, 0x00, 0x00, 0x00, 0x28, 0x00, 0x00, 0x00, 0x01, 0x00, 0x00, 0x00,
  0x03, 0x00, 0x00, 0x00, 0x15, 0x00, 0x00, 0x00, 0x63, 0x6f, 0x6e, 0x76,
  0x6f, 0x6c, 0x75, 0x74, 0x69, 0x6f, 0x6e, 0x5f, 0x31, 0x2f, 0x53, 0x71,
  0x75, 0x65, 0x65, 0x7a, 0x65, 0x00, 0x00, 0x00, 0xd4, 0xf5, 0xff, 0xff,
  0x96, 0xf6, 0xff, 0xff, 0x04, 0x00, 0x00, 0x00, 0x10, 0x00, 0x00, 0x00,
  0x01, 0x00, 0x00, 0x00, 0x01, 0x00, 0x00, 0x00, 0x45, 0x00, 0x00, 0x00,
  0x01, 0x00, 0x00, 0x00, 0x92, 0xf6, 0xff, 0xff, 0x00, 0x00, 0x00, 0x02,
  0x10, 0x00, 0x00, 0x00, 0x0a, 0x00, 0x00, 0x00, 0x10, 0x00, 0x00, 0x00,
  0x28, 0x00, 0x00, 0x00, 0x01, 0x00, 0x00, 0x00, 0x04, 0x00, 0x00, 0x00,
  0x16, 0x00, 0x00, 0x00, 0x63, 0x6f, 0x6e, 0x76, 0x6f, 0x6c, 0x75, 0x74,
  0x69, 0x6f, 0x6e, 0x2f, 0x45, 0x78, 0x70, 0x61, 0x6e, 0x64, 0x44, 0x69,
  0x6d, 0x73, 0x00, 0x00, 0x30, 0xf6, 0xff, 0xff, 0xf2, 0xf6, 0xff, 0xff,
  0x04, 0x00, 0x00, 0x00, 0xf4, 0x01, 0x00, 0x00, 0xa9, 0x8b, 0x62, 0xbf,
  0xcc, 0xbf, 0x4e, 0xba, 0xe7, 0xf9, 0x80, 0xbe, 0xcb, 0xbb, 0x12, 0xbc,
  0xf1, 0x66, 0xfe, 0x3b, 0xcd, 0x3a, 0x52, 0xbf, 0x38, 0x2b, 0x13, 0x3b,
  0xa7, 0x36, 0x0c, 0xbf, 0x83, 0x99, 0xd3, 0x3b, 0x71, 0x68, 0x0b, 0x3c,
  0x18, 0xe6, 0x04, 0xbe, 0x15, 0xd0, 0x47, 0x3c, 0xd0, 0xae, 0x17, 0x3d,
  0xfb, 0x58, 0x4f, 0x3b, 0x10, 0xe3, 0x09, 0xbc, 0x2a, 0xb4, 0xe9, 0x3e,
  0x83, 0x83, 0x66, 0xbf, 0x7e, 0x18, 0x14, 0x3f, 0x41, 0xc8, 0x0d, 0xbc,
  0xc8, 0xc5, 0x38, 0xbb, 0xaa, 0x16, 0xbe, 0x3f, 0xe3, 0x97, 0xce, 0x3d,
  0x50, 0xbd, 0x34, 0x3e, 0xeb, 0xd7, 0x11, 0x3c, 0x97, 0xe5, 0x3f, 0x3a,
  0x7f, 0x21, 0x1e, 0xbe, 0xa1, 0x2f, 0x53, 0xbe, 0x13, 0x30, 0x11, 0xbf,
  0x68, 0xad, 0x29, 0xbb, 0x74, 0xfa, 0x4a, 0x3b, 0x6c, 0xfd, 0x7a, 0xbe,
  0x06, 0x99, 0xea, 0x3e, 0x78, 0x74, 0xcc, 0xbe, 0x33, 0x9e, 0x0c, 0xbc,
  0xae, 0xd6, 0xd5, 0x3a, 0xce, 0x99, 0xb1, 0xbe, 0xfd, 0xef, 0xeb, 0x3f,
  0xc6, 0x77, 0xca, 0x3f, 0x79, 0x47, 0x9d, 0x3b, 0x6d, 0x0f, 0x09, 0x3b,
  0x42, 0x6b, 0x19, 0xbe, 0xb8, 0x4a, 0x39, 0x3f, 0xb0, 0xcc, 0x1a, 0xbf,
  0x69, 0x5d, 0xc6, 0x3a, 0x2d, 0x02, 0xef, 0x3b, 0x96, 0x88, 0xd3, 0xbd,
  0x8d, 0xfa, 0xb9, 0xbe, 0xd3, 0xde, 0x92, 0xbe, 0x66, 0x0f, 0xae, 0xba,
  0x74, 0x39, 0xac, 0xbb, 0xb4, 0x1c, 0xab, 0x3d, 0xa4, 0xd8, 0x7f, 0xbe,
  0x6d, 0x88, 0x02, 0xbf, 0x4b, 0x87, 0x07, 0xbc, 0x16, 0x6f, 0xa5, 0x3b,
  0x21, 0xdf, 0x77, 0xbf, 0xf2, 0x54, 0x03, 0xbf, 0x91, 0xfa, 0x7a, 0x3f,
  0x77, 0x58, 0x88, 0x3b, 0xb8, 0x9d, 0xc4, 0x3a, 0x7d, 0x48, 0x89, 0x3f,
  0x6a, 0x69, 0x88, 0x3d, 0xf8, 0x34, 0xa4, 0xbe, 0xb0, 0x99, 0xab, 0x3b,
  0x91, 0x0a, 0xce, 0x3b, 0x0c, 0x5b, 0x63, 0xbf, 0xec, 0xcc, 0x25, 0x3f,
  0xf2, 0x56, 0x13, 0x3f, 0x17, 0x47, 0xeb, 0xbb, 0xd1, 0x87, 0xfc, 0x3b,
  0x74, 0x92, 0x9c, 0x3f, 0x31, 0x5f, 0x9a, 0xbf, 0x06, 0x27, 0xc1, 0xbf,
  0x3f, 0x8b, 0xb2, 0xba, 0x39, 0xcc, 0x06, 0x3c, 0xc5, 0x3f, 0x6b, 0xbf,
  0x70, 0xf1, 0xba, 0x3c, 0x1f, 0xee, 0xcd, 0xbf, 0x4d, 0x40, 0xa4, 0x3b,
  0xfd, 0x48, 0x8a, 0xba, 0x68, 0x6a, 0xb8, 0x3f, 0x8c, 0x92, 0x9e, 0xbd,
  0x79, 0xeb, 0x1b, 0xbf, 0x4d, 0x45, 0x9a, 0xbb, 0x82, 0x88, 0xde, 0x3b,
  0xe6, 0xd2, 0xd6, 0x3e, 0x6b, 0xe3, 0x7e, 0xbf, 0x15, 0x26, 0xac, 0x3f,
  0x23, 0x88, 0x4a, 0xba, 0xa2, 0x69, 0xfd, 0x3b, 0xe4, 0xc6, 0xae, 0x3e,
  0xee, 0xe1, 0x74, 0x3e, 0x2e, 0x08, 0x85, 0x3e, 0xda, 0x3d, 0xe2, 0x3b,
  0x7c, 0xa0, 0xc5, 0xbb, 0xb8, 0xd2, 0xec, 0xbf, 0x95, 0x4c, 0x86, 0x3d,
  0x10, 0x4a, 0xa1, 0xbf, 0x1e, 0x6f, 0x14, 0x3c, 0x43, 0x65, 0xb3, 0xba,
  0x62, 0xfd, 0xe9, 0x3f, 0xff, 0x83, 0xab, 0xbe, 0xa8, 0x0a, 0x03, 0xbf,
  0x2a, 0xa4, 0xae, 0x3a, 0x89, 0xe7, 0x69, 0x39, 0x0f, 0xd1, 0x51, 0xbf,
  0x27, 0x34, 0x66, 0xbd, 0x0e, 0x3e, 0x4f, 0x3f, 0xc2, 0xbd, 0xc0, 0x3b,
  0x3f, 0x6b, 0x1e, 0x3a, 0xda, 0x2c, 0x44, 0xbf, 0xe6, 0x3a, 0xf6, 0xbe,
  0x50, 0xa4, 0x91, 0xbf, 0xeb, 0xd5, 0xdd, 0xbb, 0x16, 0x9f, 0x7d, 0xbb,
  0x0d, 0xe3, 0x48, 0xbf, 0xef, 0xab, 0x89, 0xbe, 0x30, 0x1e, 0x46, 0xbf,
  0xe0, 0xbc, 0xd8, 0xbb, 0xcf, 0x99, 0xba, 0x3b, 0x28, 0x7b, 0x92, 0x3f,
  0x6d, 0x73, 0x9a, 0xbe, 0x58, 0x0e, 0x8f, 0x3f, 0x02, 0x7f, 0x01, 0x3c,
  0x86, 0xb9, 0x15, 0x3b, 0x82, 0xf8, 0xff, 0xff, 0x10, 0x00, 0x00, 0x00,
  0x09, 0x00, 0x00, 0x00, 0x1c, 0x00, 0x00, 0x00, 0x2c, 0x00, 0x00, 0x00,
  0x04, 0x00, 0x00, 0x00, 0x05, 0x00, 0x00, 0x00, 0x01, 0x00, 0x00, 0x00,
  0x05, 0x00, 0x00, 0x00, 0x05, 0x00, 0x00, 0x00, 0x0d, 0x00, 0x00, 0x00,
  0x63, 0x6f, 0x6e, 0x76, 0x6f, 0x6c, 0x75, 0x74, 0x69, 0x6f, 0x6e, 0x5f,
  0x31, 0x00, 0x00, 0x00, 0x70, 0xf8, 0xff, 0xff, 0x32, 0xf9, 0xff, 0xff,
  0x04, 0x00, 0x00, 0x00, 0x64, 0x00, 0x00, 0x00, 0x16, 0x2c, 0x73, 0x40,
  0xcf, 0xeb, 0x87, 0xbf, 0xce, 0xc8, 0xa2, 0x3f, 0x66, 0x3e, 0x93, 0xbf,
  0xac, 0xb1, 0x0a, 0x3f, 0x8d, 0xa1, 0x07, 0x40, 0x5e, 0x52, 0xd6, 0xbd,
  0x72, 0x7d, 0x19, 0xc0, 0x33, 0x39, 0x07, 0xc0, 0x31, 0x0d, 0x16, 0xbf,
  0x91, 0x97, 0x60, 0x40, 0x6e, 0x15, 0x9e, 0xbd, 0x08, 0x2f, 0xea, 0xbf,
  0x0e, 0xf0, 0x71, 0x3f, 0x3c, 0x37, 0x0f, 0xc0, 0x91, 0xf4, 0xe7, 0xbb,
  0x78, 0x7d, 0x64, 0x3a, 0x87, 0x0a, 0x02, 0x3c, 0x94, 0xdb, 0x86, 0xbb,
  0x8f, 0x7a, 0x52, 0x3c, 0x56, 0xa6, 0x07, 0xbc, 0xf0, 0x8b, 0x47, 0xbc,
  0x2d, 0x5d, 0x90, 0x3c, 0x10, 0x4b, 0x0d, 0x3a, 0xf0, 0x7e, 0xc3, 0xbb,
  0x32, 0xf9, 0xff, 0xff, 0x10, 0x00, 0x00, 0x00, 0x08, 0x00, 0x00, 0x00,
  0x1c, 0x00, 0x00, 0x00, 0x28, 0x00, 0x00, 0x00, 0x04, 0x00, 0x00, 0x00,
  0x05, 0x00, 0x00, 0x00, 0x01, 0x00, 0x00, 0x00, 0x05, 0x00, 0x00, 0x00,
  0x01, 0x00, 0x00, 0x00, 0x0b, 0x00, 0x00, 0x00, 0x63, 0x6f, 0x6e, 0x76,
  0x6f, 0x6c, 0x75, 0x74, 0x69, 0x6f, 0x6e, 0x00, 0x1c, 0xf9, 0xff, 0xff,
  0xde, 0xf9, 0xff, 0xff, 0x04, 0x00, 0x00, 0x00, 0xc4, 0x04, 0x00, 0x00,
  0x4b, 0xc8, 0xb8, 0x3d, 0x51, 0x1d, 0xe5, 0x3e, 0x57, 0x3b, 0x3e, 0x3e,
  0x12, 0x3b, 0x1d, 0xbd, 0x44, 0x61, 0x78, 0x3d, 0x73, 0x06, 0x24, 0x3f,
  0xe3, 0x77, 0x94, 0xbe, 0xed, 0xa1, 0xd9, 0xbe, 0xe9, 0xa9, 0xdf, 0x3e,
  0xda, 0xb3, 0xba, 0x3e, 0xf4, 0xc4, 0xdb, 0x3b, 0x09, 0xb8, 0xa0, 0x3d,
  0xda, 0x9a, 0xe8, 0xbd, 0xbd, 0x89, 0x90, 0x3e, 0xe8, 0x73, 0xd4, 0x3e,
  0x4d, 0xe1, 0x73, 0x3e, 0x55, 0xaa, 0x86, 0xbe, 0xd4, 0xaf, 0xc6, 0xbe,
  0x07, 0xc0, 0xb5, 0x3e, 0xb8, 0xdc, 0xec, 0xbe, 0xe1, 0x45, 0x62, 0x3d,
  0x56, 0x21, 0x93, 0xbd, 0x3d, 0x99, 0xb7, 0xbe, 0x07, 0x04, 0x12, 0xbf,
  0xe9, 0x1f, 0x0b, 0x3d, 0x4e, 0x79, 0x26, 0xbf, 0xad, 0xd8, 0x9f, 0x3e,
  0x88, 0x37, 0x09, 0xbe, 0x40, 0x21, 0xe1, 0xbe, 0x73, 0x17, 0xee, 0xbe,
  0xd0, 0x31, 0x41, 0xbe, 0x6f, 0xb0, 0x95, 0x3d, 0xfd, 0x8d, 0xcc, 0xbe,
  0x12, 0x53, 0x94, 0xbe, 0x5f, 0x8a, 0x9f, 0xbe, 0xd0, 0x94, 0x03, 0xbf,
  0x96, 0xbc, 0xee, 0xbd, 0x82, 0xa1, 0x5a, 0x3d, 0xa3, 0xc3, 0xdb, 0xbe,
  0xfc, 0x3d, 0xab, 0xbe, 0xa8, 0x88, 0x72, 0x3e, 0xf3, 0x02, 0xea, 0xbe,
  0xc9, 0x95, 0x0b, 0xbe, 0xaf, 0xb1, 0xe6, 0xbd, 0x97, 0x78, 0x87, 0x3d,
  0xa2, 0xef, 0x8a, 0xbe, 0x81, 0xa9, 0x4c, 0xbc, 0xb2, 0x4b, 0xa4, 0x3e,
  0xd0, 0xdf, 0x8a, 0xbe, 0xff, 0xc5, 0x3e, 0x3d, 0x63, 0xa7, 0xb7, 0x3e,
  0xcf, 0x81, 0xf6, 0xbe, 0xee, 0x43, 0x6f, 0x3d, 0xe0, 0xa9, 0xeb, 0x3d,
  0x6e, 0xbb, 0xf8, 0xbe, 0x77, 0xd3, 0xec, 0xbe, 0xbc, 0xb0, 0xa3, 0xbe,
  0x26, 0x36, 0xab, 0x3e, 0x3a, 0xe6, 0x33, 0xbf, 0xef, 0x6c, 0x45, 0x3d,
  0xf7, 0x01, 0xa4, 0xbd, 0x98, 0xc2, 0x87, 0xbe, 0xbf, 0xca, 0x8e, 0xbe,
  0x5b, 0x95, 0xfe, 0xbd, 0x8d, 0x43, 0xd4, 0x3e, 0x76, 0x06, 0x46, 0xbd,
  0xbc, 0x34, 0x60, 0xbe, 0x4c, 0x49, 0x1b, 0xbf, 0x56, 0x3f, 0x63, 0xbe,
  0x08, 0xc7, 0x75, 0xbe, 0x3b, 0x43, 0xd6, 0x3c, 0xf1, 0x40, 0xf0, 0xbe,
  0xc0, 0x16, 0x78, 0xbf, 0x5b, 0xab, 0x5f, 0x3c, 0x3f, 0x41, 0x07, 0x3e,
  0xee, 0x08, 0x88, 0xbc, 0x07, 0x91, 0x24, 0xbe, 0x1d, 0x0a, 0xd4, 0xbe,
  0x81, 0x53, 0x88, 0xbe, 0x06, 0xbe, 0x22, 0xbf, 0x0b, 0xf0, 0xa9, 0xbc,
  0x57, 0x48, 0xaa, 0xbe, 0x3e, 0x0b, 0x26, 0x3e, 0x05, 0xa2, 0xa2, 0xbe,
  0xc0, 0xf7, 0x11, 0x3d, 0x46, 0xeb, 0xf1, 0xbe, 0xb6, 0xb7, 0x15, 0xbf,
  0x51, 0x0f, 0x06, 0x3e, 0xc2, 0xd2, 0xcc, 0x3e, 0x1b, 0x8f, 0x1f, 0xbe,
  0xc5, 0x27, 0x99, 0xbe, 0xe2, 0x40, 0x11, 0xbf, 0x71, 0x49, 0x27, 0x3c,
  0x88, 0x87, 0x6a, 0xbe, 0xf3, 0xe8, 0x05, 0xbf, 0xa5, 0xa8, 0x63, 0xbd,
  0x47, 0x93, 0x8a, 0xbe, 0x0e, 0x05, 0x97, 0xbe, 0x80, 0x2f, 0xa8, 0xbe,
  0x46, 0xb9, 0x83, 0xbe, 0x71, 0xac, 0x99, 0xbe, 0x54, 0xe5, 0x0d, 0x3e,
  0x16, 0x48, 0x14, 0xbe, 0x91, 0xab, 0xa0, 0xbe, 0xfc, 0xae, 0x96, 0x3d,
  0xd9, 0x10, 0xe5, 0xbe, 0xb7, 0x35, 0x46, 0xbe, 0x10, 0xb7, 0xab, 0xbe,
  0xc6, 0xb0, 0xda, 0x3d, 0x7b, 0x60, 0xf1, 0xbe, 0xb3, 0xab, 0x3f, 0xbf,
  0x9c, 0x36, 0xba, 0xbe, 0xc4, 0x4f, 0xf4, 0x3e, 0xa9, 0x33, 0x1f, 0xbe,
  0x88, 0xe5, 0x2d, 0xbe, 0x82, 0xeb, 0x96, 0xbe, 0xdf, 0x08, 0x74, 0xbd,
  0xbe, 0x1a, 0xa3, 0xbe, 0x73, 0x0c, 0x4c, 0x3f, 0x19, 0xf0, 0xb1, 0xbd,
  0xbf, 0x53, 0x0d, 0x3d, 0x0f, 0x61, 0x97, 0xbd, 0x64, 0x4c, 0x42, 0x3f,
  0x3f, 0xb3, 0xf5, 0xbe, 0x59, 0x98, 0xaf, 0x3e, 0x1d, 0xb1, 0x38, 0xbf,
  0x63, 0x98, 0x38, 0x3d, 0xb6, 0xf6, 0xf2, 0xbe, 0x50, 0xbd, 0xa6, 0x3e,
  0x9b, 0x13, 0x34, 0xbf, 0x80, 0xaf, 0x27, 0xbe, 0xa2, 0x72, 0x0f, 0xbf,
  0xe5, 0xa5, 0xfe, 0x3e, 0x46, 0x48, 0x97, 0xbf, 0xcd, 0x54, 0xf6, 0x3e,
  0x1b, 0xb7, 0x2b, 0xbe, 0x1b, 0x24, 0x64, 0xbd, 0x10, 0x80, 0x18, 0xbe,
  0x1b, 0xba, 0xcc, 0x3e, 0x56, 0xe1, 0x09, 0xbf, 0x79, 0xd4, 0xc3, 0x3e,
  0xdd, 0x55, 0xb9, 0xbd, 0xbc, 0xbb, 0xbe, 0xbd, 0xdd, 0x2c, 0xb6, 0x3d,
  0x9a, 0x52, 0x94, 0x3e, 0x80, 0xdb, 0xd0, 0xbe, 0x74, 0x04, 0xbe, 0x3e,
  0xb3, 0xae, 0xc5, 0xbe, 0xf9, 0xe7, 0x8e, 0x3e, 0x3f, 0xef, 0x3f, 0xbe,
  0xa6, 0xd7, 0x5c, 0x3e, 0xbe, 0xaf, 0xb6, 0xbd, 0x69, 0x29, 0xcd, 0x3e,
  0xe7, 0x12, 0x87, 0xbe, 0x33, 0x42, 0xae, 0x3e, 0x0c, 0x48, 0x36, 0xbe,
  0xfa, 0xa6, 0x43, 0x3d, 0x08, 0x0b, 0x3b, 0xbf, 0x63, 0x84, 0x5d, 0x3f,
  0x60, 0x17, 0x1b, 0xbd, 0x6f, 0x12, 0x99, 0x3e, 0x3d, 0xaf, 0x71, 0xbe,
  0x1b, 0x7b, 0x97, 0x3e, 0xd6, 0x54, 0x81, 0xbe, 0x18, 0xb6, 0x67, 0x3e,
  0xa8, 0xc0, 0xb4, 0x3e, 0x94, 0x52, 0x55, 0x3f, 0x54, 0x46, 0x55, 0xbe,
  0x88, 0xcd, 0x39, 0x3e, 0xf0, 0x2e, 0x48, 0xbe, 0x29, 0x99, 0xd9, 0x3e,
  0xc8, 0xf6, 0x50, 0xbe, 0x39, 0xa5, 0xe9, 0x3e, 0xf4, 0xc4, 0x37, 0xbf,
  0xc0, 0xef, 0xfe, 0x3e, 0x70, 0xd7, 0x01, 0x3f, 0x75, 0x06, 0xa9, 0xbb,
  0x90, 0x9e, 0x7c, 0xbe, 0x75, 0x64, 0x96, 0x3e, 0x8c, 0xc1, 0xf5, 0xbe,
  0x4c, 0xc8, 0x40, 0x3f, 0xf9, 0x8c, 0xda, 0xbe, 0x4a, 0xc0, 0xd1, 0x3e,
  0xca, 0x8f, 0x27, 0xbf, 0x75, 0x97, 0x7c, 0x3d, 0xe5, 0xd5, 0xba, 0xbd,
  0x5d, 0x63, 0x4b, 0xbe, 0x9f, 0xe4, 0x4d, 0xbf, 0xca, 0xf9, 0xc8, 0xbe,
  0x70, 0xb4, 0x06, 0xbf, 0xc8, 0xa8, 0x28, 0xbe, 0x10, 0x23, 0xe9, 0x3e,
  0xae, 0xf6, 0x03, 0x3e, 0x4a, 0x8c, 0x85, 0x3e, 0x14, 0x4c, 0xdb, 0xbc,
  0xd5, 0xe5, 0xe8, 0xbe, 0xcc, 0x40, 0x40, 0x3e, 0x19, 0x5a, 0x35, 0xbf,
  0xe7, 0x1e, 0x1c, 0x3e, 0xf7, 0x16, 0x43, 0xbf, 0xa5, 0x4d, 0x75, 0xbd,
  0x25, 0x12, 0x7a, 0xbe, 0xcb, 0x9d, 0xae, 0x3e, 0xa1, 0xb3, 0x26, 0xbf,
  0x34, 0xee, 0xa8, 0x3d, 0x6a, 0xec, 0x88, 0xbf, 0xa1, 0x59, 0x86, 0x3d,
  0xac, 0xb8, 0xba, 0x3c, 0x8b, 0x53, 0xe0, 0x3e, 0x1a, 0xfa, 0xbc, 0xbe,
  0x36, 0xfe, 0xb3, 0x3e, 0xf6, 0x45, 0x04, 0xbf, 0xcb, 0x9c, 0x63, 0x3e,
  0xc4, 0xbd, 0xa4, 0x3c, 0x38, 0x7d, 0x38, 0x3f, 0xdc, 0x18, 0x1f, 0xbf,
  0xad, 0x74, 0xff, 0x3b, 0x08, 0x64, 0xc2, 0xbe, 0x73, 0x44, 0xb2, 0xbd,
  0xb0, 0x94, 0x3f, 0xbf, 0x01, 0x84, 0x7f, 0x3e, 0x9f, 0x50, 0x36, 0x3e,
  0xe0, 0x02, 0x29, 0xbf, 0x1c, 0x3f, 0xad, 0xbe, 0x17, 0xe0, 0x58, 0x3e,
  0x2c, 0x8c, 0x0a, 0xbf, 0xcf, 0x48, 0xef, 0xbd, 0x5b, 0x8b, 0x9f, 0x3c,
  0x00, 0x77, 0xd3, 0x3e, 0xf7, 0xdd, 0x85, 0xbd, 0x52, 0x09, 0x30, 0x3d,
  0x37, 0xe0, 0x80, 0xbe, 0x23, 0x3d, 0xee, 0x3d, 0x80, 0xb8, 0x93, 0x3c,
  0xca, 0x4f, 0x5c, 0xbc, 0x25, 0x08, 0x02, 0xbf, 0x03, 0xd5, 0x83, 0x3d,
  0x9c, 0x93, 0x4e, 0xbf, 0x4a, 0xb7, 0xc8, 0x3d, 0xf5, 0xdc, 0xc9, 0xbe,
  0x02, 0x96, 0xa5, 0x3e, 0xaf, 0x21, 0x94, 0xbe, 0x73, 0x13, 0x99, 0x3e,
  0xeb, 0x1d, 0x87, 0x3d, 0xef, 0xf6, 0x3e, 0xbe, 0xf6, 0x99, 0xc2, 0xbe,
  0x57, 0x8c, 0x43, 0x3f, 0x22, 0xb7, 0x0f, 0xbf, 0xb6, 0xb1, 0x68, 0x3e,
  0x22, 0x40, 0x59, 0xbf, 0x96, 0xd7, 0xff, 0x3c, 0x15, 0xa4, 0x20, 0xbf,
  0x6b, 0x89, 0xcb, 0x3e, 0xb4, 0x91, 0x73, 0xbe, 0x89, 0x3c, 0x89, 0x3e,
  0x97, 0xb2, 0x32, 0x3d, 0x53, 0x0f, 0xc5, 0x3d, 0x11, 0xa5, 0x99, 0xba,
  0xc1, 0xf8, 0xb0, 0x3d, 0x51, 0xe7, 0x15, 0xbe, 0xe1, 0x7a, 0xa7, 0x3e,
  0x9f, 0x76, 0xa8, 0xbe, 0xc9, 0x81, 0x01, 0x3f, 0x0c, 0xe2, 0xb6, 0xbd,
  0x6e, 0x86, 0xcd, 0x3e, 0xe4, 0x9e, 0x21, 0xbf, 0x5c, 0x70, 0x33, 0x3f,
  0xf0, 0x28, 0x87, 0x3d, 0x7f, 0x99, 0x91, 0x3e, 0x2c, 0x7d, 0x83, 0xbe,
  0x5f, 0xb7, 0x52, 0x3e, 0x9d, 0x4d, 0x32, 0xbf, 0x3a, 0x2a, 0x19, 0x3f,
  0xae, 0x12, 0xb3, 0xbe, 0x17, 0xf7, 0x2b, 0x3f, 0xc3, 0x53, 0xdf, 0xbe,
  0x6c, 0x63, 0x3b, 0x3e, 0xb5, 0xf1, 0xc6, 0xbd, 0xbd, 0x15, 0x0d, 0x3f,
  0xe4, 0x42, 0x90, 0xbe, 0x15, 0x8c, 0x2f, 0x3f, 0x3a, 0xe1, 0x7e, 0x3e,
  0x5b, 0x61, 0x8c, 0x3e, 0x71, 0x43, 0xa8, 0xbd, 0xb6, 0x43, 0xcf, 0x3e,
  0x70, 0x57, 0x37, 0xbf, 0x51, 0xff, 0x3d, 0x3f, 0x56, 0xc5, 0x44, 0xbf,
  0x94, 0xf2, 0xdf, 0x3e, 0x3a, 0x5b, 0x82, 0xbe, 0x85, 0x60, 0x89, 0x3e,
  0x35, 0xd4, 0x62, 0xbe, 0x59, 0x7f, 0x12, 0xbe, 0xff, 0x95, 0x95, 0xbc,
  0xb0, 0xc6, 0xa4, 0xbe, 0xa7, 0x42, 0x04, 0xbf, 0xe3, 0x7b, 0x4d, 0x3f,
  0x10, 0x6e, 0x12, 0xbf, 0xfe, 0x1e, 0x55, 0x3e, 0x3d, 0x52, 0x76, 0xbe,
  0xc4, 0xc8, 0xcb, 0x3e, 0xa3, 0x9f, 0x51, 0xbf, 0x39, 0x38, 0x15, 0x3f,
  0x63, 0x10, 0xcc, 0x3d, 0xf6, 0x44, 0xbb, 0x3e, 0x3e, 0xfe, 0xff, 0xff,
  0x10, 0x00, 0x00, 0x00, 0x07, 0x00, 0x00, 0x00, 0x14, 0x00, 0x00, 0x00,
  0x1c, 0x00, 0x00, 0x00, 0x02, 0x00, 0x00, 0x00, 0x01, 0x00, 0x00, 0x00,
  0x31, 0x01, 0x00, 0x00, 0x06, 0x00, 0x00, 0x00, 0x4d, 0x61, 0x74, 0x4d,
  0x75, 0x6c, 0x00, 0x00, 0x1c, 0xfe, 0xff, 0xff, 0xde, 0xfe, 0xff, 0xff,
  0x04, 0x00, 0x00, 0x00, 0x04, 0x00, 0x00, 0x00, 0x7f, 0x93, 0xbc, 0x3f,
  0x7e, 0xfe, 0xff, 0xff, 0x10, 0x00, 0x00, 0x00, 0x06, 0x00, 0x00, 0x00,
  0x10, 0x00, 0x00, 0x00, 0x18, 0x00, 0x00, 0x00, 0x01, 0x00, 0x00, 0x00,
  0x01, 0x00, 0x00, 0x00, 0x07, 0x00, 0x00, 0x00, 0x43, 0x6f, 0x6e, 0x73,
  0x74, 0x5f, 0x35, 0x00, 0x58, 0xfe, 0xff, 0xff, 0x1a, 0xff, 0xff, 0xff,
  0x04, 0x00, 0x00, 0x00, 0x14, 0x00, 0x00, 0x00, 0x13, 0x3f, 0x5f, 0xbf,
  0x68, 0x87, 0x7d, 0xbf, 0x2d, 0x2e, 0xda, 0x3b, 0xfb, 0x84, 0x0d, 0xbf,
  0x44, 0x51, 0x72, 0xbf, 0xca, 0xfe, 0xff, 0xff, 0x10, 0x00, 0x00, 0x00,
  0x05, 0x00, 0x00, 0x00, 0x10, 0x00, 0x00, 0x00, 0x18, 0x00, 0x00, 0x00,
  0x01, 0x00, 0x00, 0x00, 0x05, 0x00, 0x00, 0x00, 0x07, 0x00, 0x00, 0x00,
  0x43, 0x6f, 0x6e, 0x73, 0x74, 0x5f, 0x33, 0x00, 0xa4, 0xfe, 0xff, 0xff,
  0x66, 0xff, 0xff, 0xff, 0x04, 0x00, 0x00, 0x00, 0x14, 0x00, 0x00, 0x00,
  0x2d, 0x56, 0xac, 0xbf, 0x52, 0xbb, 0xca, 0x3e, 0x05, 0x01, 0x1d, 0xbf,
  0x4d, 0xae, 0x82, 0xbc, 0x04, 0xef, 0x31, 0xbc, 0x16, 0xff, 0xff, 0xff,
  0x10, 0x00, 0x00, 0x00, 0x04, 0x00, 0x00, 0x00, 0x10, 0x00, 0x00, 0x00,
  0x18, 0x00, 0x00, 0x00, 0x01, 0x00, 0x00, 0x00, 0x05, 0x00, 0x00, 0x00,
  0x07, 0x00, 0x00, 0x00, 0x43, 0x6f, 0x6e, 0x73, 0x74, 0x5f, 0x31, 0x00,
  0xf0, 0xfe, 0xff, 0xff, 0xb2, 0xff, 0xff, 0xff, 0x04, 0x00, 0x00, 0x00,
  0x08, 0x00, 0x00, 0x00, 0xff, 0xff, 0xff, 0xff, 0x31, 0x01, 0x00, 0x00,
  0xa6, 0xff, 0xff, 0xff, 0x00, 0x00, 0x00, 0x02, 0x10, 0x00, 0x00, 0x00,
  0x03, 0x00, 0x00, 0x00, 0x10, 0x00, 0x00, 0x00, 0x20, 0x00, 0x00, 0x00,
  0x01, 0x00, 0x00, 0x00, 0x02, 0x00, 0x00, 0x00, 0x0d, 0x00, 0x00, 0x00,
  0x66, 0x6c, 0x61, 0x74, 0x74, 0x65, 0x6e, 0x2f, 0x43, 0x6f, 0x6e, 0x73,
  0x74, 0x00, 0x00, 0x00, 0x94, 0xff, 0xff, 0xff, 0x00, 0x00, 0x06, 0x00,
  0x08, 0x00, 0x04, 0x00, 0x06, 0x00, 0x00, 0x00, 0x04, 0x00, 0x00, 0x00,
  0x0c, 0x00, 0x00, 0x00, 0x00, 0x00, 0x00, 0x00, 0x02, 0x00, 0x00, 0x00,
  0x01, 0x00, 0x00, 0x00, 0x00, 0x00, 0x0e, 0x00, 0x18, 0x00, 0x08, 0x00,
  0x07, 0x00, 0x0c, 0x00, 0x10, 0x00, 0x14, 0x00, 0x0e, 0x00, 0x00, 0x00,
  0x00, 0x00, 0x00, 0x02, 0x10, 0x00, 0x00, 0x00, 0x02, 0x00, 0x00, 0x00,
  0x10, 0x00, 0x00, 0x00, 0x28, 0x00, 0x00, 0x00, 0x01, 0x00, 0x00, 0x00,
  0x03, 0x00, 0x00, 0x00, 0x10, 0x00, 0x00, 0x00, 0x74, 0x72, 0x61, 0x6e,
  0x73, 0x70, 0x6f, 0x73, 0x65, 0x5f, 0x31, 0x2f, 0x70, 0x65, 0x72, 0x6d,
  0x00, 0x00, 0x00, 0x00, 0x04, 0x00, 0x06, 0x00, 0x04, 0x00, 0x00, 0x00,
  0x00, 0x00, 0x0e, 0x00, 0x14, 0x00, 0x04, 0x00, 0x00, 0x00, 0x08, 0x00,
  0x0c, 0x00, 0x10, 0x00, 0x0e, 0x00, 0x00, 0x00, 0x10, 0x00, 0x00, 0x00,
  0x01, 0x00, 0x00, 0x00, 0x14, 0x00, 0x00, 0x00, 0x2c, 0x00, 0x00, 0x00,
  0x02, 0x00, 0x00, 0x00, 0x01, 0x00, 0x00, 0x00, 0x45, 0x00, 0x00, 0x00,
  0x17, 0x00, 0x00, 0x00, 0x73, 0x65, 0x72, 0x76, 0x69, 0x6e, 0x67, 0x5f,
  0x64, 0x65, 0x66, 0x61, 0x75, 0x6c, 0x74, 0x5f, 0x69, 0x6e, 0x70, 0x75,
  0x74, 0x3a, 0x30, 0x00, 0xfc, 0xff, 0xff, 0xff, 0x04, 0x00, 0x04, 0x00,
  0x04, 0x00, 0x00, 0x00
};
unsigned int g_model_len = 4432;
